<unk>	0
<s>	0
</s>	0
.	-2.95975
▁I	-3.5507
▁the	-3.56382
,	-3.67293
▁and	-3.70294
▁a	-3.80938
▁to	-4.10239
'	-4.25683
▁for	-4.39886
▁"	-4.46739
▁is	-4.52151
▁it	-4.54118
s	-4.63806
▁in	-4.6686
▁of	-4.6933
▁my	-4.75252
▁are	-4.75637
."	-4.8297
▁them	-4.83837
▁they	-4.89071
▁but	-4.91804
▁these	-5.0118
▁that	-5.06182
▁fit	-5.07247
▁have	-5.0958
▁on	-5.11276
t	-5.11586
▁size	-5.17932
▁this	-5.20352
▁with	-5.2312
▁was	-5.2396
!	-5.26064
▁as	-5.30086
▁not	-5.37691
▁so	-5.45503
▁great	-5.45646
▁The	-5.458
▁very	-5.47834
▁wear	-5.50403
▁you	-5.5207
▁like	-5.5398
▁shoes	-5.57531
▁They	-5.60917
▁be	-5.62533
▁good	-5.64831
I	-5.70805
▁comfortable	-5.72601
▁pants	-5.77319
▁well	-5.81307
-	-5.84104
▁too	-5.8479
▁pair	-5.8773
▁just	-5.89389
▁than	-5.9325
▁up	-5.99155
▁will	-6.00973
▁work	-6.02785
▁all	-6.03418
▁quality	-6.03581
▁one	-6.03679
▁were	-6.04433
▁had	-6.05182
▁me	-6.05232
▁more	-6.08197
▁or	-6.08564
▁love	-6.09267
▁would	-6.09363
▁It	-6.09421
▁at	-6.11249
▁can	-6.12521
▁time	-6.12676
▁little	-6.13049
▁shoe	-6.16851
m	-6.1909
▁out	-6.23157
▁small	-6.24237
▁	-6.25266
▁get	-6.26845
▁bought	-6.28346
▁nice	-6.297
▁Great	-6.30092
"	-6.30123
▁(	-6.30932
▁look	-6.32319
▁perfect	-6.33387
▁ordered	-6.33841
▁price	-6.34277
▁when	-6.37707
▁buy	-6.37745
▁what	-6.37762
▁color	-6.39425
▁from	-6.39813
▁My	-6.42552
▁These	-6.44982
▁if	-6.45141
▁other	-6.46025
▁has	-6.46185
▁because	-6.46605
▁years	-6.47979
▁really	-6.48148
▁long	-6.4852
▁watch	-6.488
▁expected	-6.51415
▁made	-6.5274
▁am	-6.53122
ve	-6.5341
▁This	-6.57474
▁an	-6.57514
▁don	-6.58657
▁he	-6.61041
▁do	-6.61493
▁about	-6.62135
▁only	-6.63801
▁no	-6.65291
▁big	-6.65787
!"	-6.66126
ing	-6.66368
▁bit	-6.66408
▁much	-6.69209
d	-6.69409
▁wearing	-6.69468
...	-6.70788
▁waist	-6.72307
▁day	-6.74705
▁been	-6.7472
)	-6.74724
▁i	-6.75175
▁product	-6.75512
re	-6.76484
""	-6.76537
▁loves	-6.76997
▁-	-6.77204
▁right	-6.78012
▁your	-6.78043
▁got	-6.78086
▁order	-6.78252
▁Very	-6.78772
▁still	-6.80541
▁feet	-6.81004
▁husband	-6.81483
▁back	-6.82444
ed	-6.82507
▁even	-6.83589
▁fits	-6.84412
▁Love	-6.84803
▁shirt	-6.84917
▁which	-6.85094
▁go	-6.86277
▁some	-6.86437
▁after	-6.86605
▁jeans	-6.88332
▁last	-6.89349
▁""	-6.89531
▁large	-6.89875
▁first	-6.92032
▁bra	-6.9376
ly	-6.94018
▁find	-6.94762
▁same	-6.94921
▁always	-6.95304
▁looking	-6.95958
▁use	-6.99165
▁again	-6.99595
▁run	-7.00587
▁way	-7.01491
▁material	-7.02393
▁feel	-7.02771
▁need	-7.03031
/	-7.03262
▁also	-7.03413
▁around	-7.04262
▁off	-7.04535
▁He	-7.04571
▁better	-7.05312
▁over	-7.07002
▁now	-7.0706
▁worn	-7.07612
▁support	-7.09158
▁Good	-7.09398
▁son	-7.09451
▁recommend	-7.09923
▁tight	-7.10066
▁old	-7.1156
▁2	-7.11738
▁perfectly	-7.121
▁A	-7.12949
▁keep	-7.13906
▁did	-7.14827
▁enough	-7.15964
▁any	-7.1692
▁looks	-7.20286
▁new	-7.20854
▁happy	-7.21004
▁style	-7.21051
These	-7.21343
▁two	-7.21807
▁smaller	-7.2277
▁another	-7.23738
▁could	-7.24694
▁his	-7.24798
▁there	-7.27571
▁down	-7.27728
▁larger	-7.2873
▁Dickies	-7.29012
▁purchased	-7.29034
▁brand	-7.30002
▁put	-7.30054
▁purchase	-7.30296
▁boots	-7.30311
▁wide	-7.31495
▁year	-7.31648
▁we	-7.32222
▁shirts	-7.32376
▁didn	-7.32761
▁fine	-7.34404
▁most	-7.35149
▁wanted	-7.35597
▁durable	-7.35855
ll	-7.36538
▁Amazon	-7.36652
▁think	-7.36701
▁So	-7.36875
▁different	-7.37405
▁how	-7.37409
▁know	-7.37464
▁easy	-7.37861
▁few	-7.37993
▁though	-7.38028
▁by	-7.38096
▁best	-7.40124
▁before	-7.40364
▁many	-7.40657
This	-7.41189
▁If	-7.41314
▁But	-7.41438
▁make	-7.4162
▁every	-7.43112
▁colors	-7.43447
▁pretty	-7.43552
▁should	-7.4367
▁used	-7.43811
▁hard	-7.43991
▁band	-7.44161
▁length	-7.44199
▁she	-7.44465
▁return	-7.45115
▁since	-7.45186
▁black	-7.45286
▁lot	-7.45705
y	-7.46032
▁warm	-7.46722
▁foot	-7.4685
▁Nice	-7.46858
▁never	-7.47487
▁want	-7.48748
The	-7.50336
▁3	-7.5102
▁her	-7.51441
▁without	-7.51573
▁then	-7.51872
▁him	-7.52212
▁needed	-7.5238
▁daughter	-7.52559
▁Not	-7.52716
▁B	-7.52852
▁going	-7.52972
▁Perfect	-7.53495
▁sure	-7.5352
▁fabric	-7.53532
▁Fit	-7.54871
▁5	-7.55512
▁&	-7.56303
▁does	-7.57654
▁sizes	-7.57782
▁belt	-7.58072
▁leather	-7.58088
▁who	-7.58128
▁ones	-7.58261
▁their	-7.58775
▁pairs	-7.5896
;	-7.59328
▁say	-7.59337
▁high	-7.60524
▁wears	-7.60759
▁ever	-7.61906
▁buying	-7.62171
▁true	-7.62826
▁see	-7.62972
▁light	-7.6319
:	-7.63994
!!	-7.64833
▁wash	-7.64869
▁several	-7.65991
).	-7.66801
▁top	-7.67215
Great	-7.67235
▁wore	-7.67494
▁soft	-7.69306
▁seem	-7.69528
▁Carhartt	-7.6998
▁4	-7.70664
▁usually	-7.70853
▁while	-7.71318
▁cute	-7.71512
▁problem	-7.7194
▁found	-7.72072
▁store	-7.722
▁jacket	-7.7252
▁weight	-7.72551
▁short	-7.72603
▁half	-7.72837
▁exactly	-7.73123
▁Just	-7.73266
▁definitely	-7.73352
▁doesn	-7.73615
▁take	-7.74179
▁came	-7.74649
▁through	-7.75031
▁into	-7.75204
▁heavy	-7.75361
▁gift	-7.7559
▁loved	-7.75945
▁being	-7.76432
My	-7.76896
▁narrow	-7.78788
▁longer	-7.79611
▁far	-7.79912
▁said	-7.80049
▁bigger	-7.80049
ought	-7.80453
▁tried	-7.80533
▁hold	-7.82206
▁second	-7.83511
▁Fits	-7.83718
▁where	-7.83766
▁something	-7.8441
▁days	-7.84678
▁under	-7.84743
▁getting	-7.85288
▁give	-7.85662
▁almost	-7.85698
▁pockets	-7.85885
▁thought	-7.85938
▁wrong	-7.85986
▁thing	-7.8608
x	-7.8655
▁sizing	-7.86572
▁try	-7.86885
▁walking	-7.87688
▁seems	-7.87714
▁come	-7.87772
▁stiff	-7.88236
▁legs	-7.88674
▁6	-7.89033
?	-7.89947
▁We	-7.89973
▁reviews	-7.9021
▁10	-7.91134
▁normally	-7.91602
▁quite	-7.91988
▁comfy	-7.92687
e	-7.93172
▁favorite	-7.93533
▁She	-7.93715
▁casual	-7.94004
▁money	-7.94332
▁makes	-7.94369
▁white	-7.94814
▁loose	-7.95159
▁excellent	-7.95376
▁months	-7.95561
▁You	-7.95755
▁super	-7.96244
▁probably	-7.96496
▁And	-7.96682
▁side	-7.96728
▁arch	-7.97621
▁8	-7.97735
▁34	-7.97998
▁No	-7.98369
▁box	-7.98768
▁dress	-7.992
▁toe	-7.99879
▁room	-7.99974
▁thin	-8.00097
▁arrived	-8.0013
▁pleased	-8.00216
▁cut	-8.00568
▁its	-8.0085
▁Converse	-8.00884
▁ordering	-8.00887
▁sandals	-8.01774
▁read	-8.02389
▁extra	-8.02838
▁comfort	-8.03083
▁received	-8.03544
▁water	-8.04054
▁actually	-8.0416
▁wish	-8.0437
▁strap	-8.05479
a	-8.05691
▁costume	-8.06104
▁bag	-8.06388
▁yet	-8.06434
!!!	-8.06534
▁both	-8.0694
▁shipping	-8.07601
▁fast	-8.07752
▁sturdy	-8.07875
▁As	-8.08306
▁easily	-8.08601
▁thick	-8.08928
▁converse	-8.09024
▁However	-8.09242
▁times	-8.09244
▁36	-8.096
▁1/2	-8.09764
▁summer	-8.09863
▁may	-8.09884
▁socks	-8.10018
S	-8.11555
B	-8.11805
er	-8.12075
▁worth	-8.12155
▁able	-8.12303
▁own	-8.12593
▁disappointed	-8.12616
▁everything	-8.12989
▁Will	-8.13179
▁normal	-8.13203
▁couple	-8.13463
▁shorts	-8.14045
▁wallet	-8.14734
▁looked	-8.14801
▁least	-8.14913
▁7	-8.1505
▁regular	-8.15113
▁stars	-8.15461
▁works	-8.15757
▁boot	-8.1591
▁snug	-8.16973
▁here	-8.17022
▁pocket	-8.17113
▁ago	-8.17216
▁width	-8.17216
▁expect	-8.17535
▁medium	-8.17676
▁next	-8.17973
▁those	-8.18073
▁returned	-8.18196
▁front	-8.18377
▁women	-8.18533
▁cheap	-8.1902
▁working	-8.19073
▁item	-8.19162
▁anything	-8.19417
▁went	-8.20108
▁Also	-8.21545
▁quickly	-8.21586
▁heel	-8.22389
▁For	-8.22419
▁job	-8.22684
▁bad	-8.23127
▁32	-8.23225
▁straps	-8.23411
▁1	-8.23709
▁won	-8.23861
n	-8.23946
▁once	-8.24168
▁men	-8.24867
▁stay	-8.24917
▁feels	-8.2505
▁cold	-8.25222
▁winter	-8.25268
▁T	-8.25448
▁There	-8.25966
▁bras	-8.25993
▁inside	-8.26364
▁might	-8.2666
▁everyday	-8.27771
▁Excellent	-8.27807
▁slightly	-8.27886
▁walk	-8.27976
Love	-8.28342
in	-8.28806
▁washed	-8.2886
▁liked	-8.30242
▁cotton	-8.30683
▁less	-8.30884
▁however	-8.30911
▁9	-8.3115
▁t	-8.31186
▁slip	-8.3237
▁runs	-8.32493
Very	-8.32549
▁running	-8.33222
▁real	-8.33529
▁tall	-8.33537
▁face	-8.33908
▁having	-8.34863
▁Keen	-8.34935
They	-8.35034
▁shape	-8.35078
▁blue	-8.35107
▁sole	-8.35893
▁classic	-8.35992
▁sneakers	-8.36221
▁break	-8.36264
▁else	-8.36292
▁washing	-8.36368
▁clothes	-8.36417
▁likes	-8.36468
▁Timex	-8.36654
▁felt	-8.36777
▁30	-8.37101
▁past	-8.37139
▁things	-8.37156
▁part	-8.3727
▁says	-8.37767
▁awesome	-8.37875
▁picture	-8.38515
▁already	-8.38732
▁pant	-8.38817
▁weather	-8.38857
▁instead	-8.38979
▁deal	-8.39291
▁our	-8.39603
▁dry	-8.39819
▁others	-8.39981
▁extremely	-8.40108
▁full	-8.40421
▁three	-8.41236
▁When	-8.41266
▁people	-8.41485
▁Keds	-8.42414
▁why	-8.42765
▁highly	-8.42853
▁ok	-8.42896
▁area	-8.43061
▁leg	-8.43082
▁38	-8.43211
▁stores	-8.43413
▁inch	-8.43515
▁value	-8.43923
▁away	-8.43961
▁kind	-8.44212
▁wrist	-8.44268
▁Would	-8.45052
▁low	-8.45334
▁red	-8.45904
▁Thank	-8.46274
▁couldn	-8.47055
▁took	-8.47256
▁cool	-8.47338
▁design	-8.4767
▁reason	-8.47878
▁wife	-8.47901
i	-8.47958
▁That	-8.48045
▁online	-8.48131
▁Comfortable	-8.48213
▁All	-8.4856
▁nicely	-8.493
▁stretch	-8.49464
▁uncomfortable	-8.49812
▁week	-8.49859
▁especially	-8.49959
It	-8.50086
▁watches	-8.50182
▁brands	-8.50637
▁school	-8.51064
▁dark	-8.51165
▁outside	-8.51224
....	-8.51465
▁Thanks	-8.51513
▁owned	-8.51638
▁place	-8.51807
▁fitting	-8.52096
▁pantyhose	-8.52182
▁tell	-8.52229
▁glad	-8.52465
▁dickies	-8.52649
▁end	-8.53071
A	-8.53386
▁inches	-8.53504
▁In	-8.53573
▁Christmas	-8.53891
▁LOVE	-8.54032
▁replace	-8.54909
▁hot	-8.54927
▁isn	-8.55224
▁using	-8.55841
▁hose	-8.56075
▁After	-8.56401
Good	-8.56607
and	-8.57739
▁described	-8.58452
▁absolutely	-8.59052
▁issue	-8.59177
),	-8.59217
▁shrink	-8.59321
_	-8.5941
▁gave	-8.59504
▁Too	-8.601
▁hiking	-8.60573
▁S	-8.60651
Nice	-8.6068
▁strong	-8.60848
▁hours	-8.6089
▁anyone	-8.6116
▁decided	-8.61508
▁trying	-8.61608
▁bottom	-8.6194
▁Can	-8.61955
▁wasn	-8.61988
▁'	-8.62193
▁problems	-8.62445
▁button	-8.6296
▁un	-8.63044
▁until	-8.63217
▁12	-8.63253
▁fact	-8.64006
▁type	-8.64332
▁Well	-8.64344
--	-8.64655
▁maybe	-8.65632
▁must	-8.66036
D	-8.66095
▁overall	-8.66151
▁delivery	-8.66258
▁close	-8.66887
▁expensive	-8.66908
▁review	-8.67156
▁satisfied	-8.67563
▁house	-8.67896
▁overalls	-8.68515
▁needs	-8.68894
▁usual	-8.69127
▁toes	-8.69378
▁wouldn	-8.70014
▁man	-8.70202
▁service	-8.70731
▁nothing	-8.70746
▁guess	-8.71184
▁either	-8.71426
▁worked	-8.71631
the	-8.72037
▁baggy	-8.72284
▁:)	-8.72338
▁beautiful	-8.7236
▁40	-8.7267
▁daily	-8.728
▁tough	-8.72887
▁laces	-8.72967
▁correct	-8.73114
▁set	-8.73133
▁clothing	-8.73367
▁haven	-8.7363
▁coat	-8.7459
▁Had	-8.74758
r	-8.7488
▁Now	-8.75427
on	-8.75596
▁plastic	-8.75618
▁apart	-8.75699
▁difficult	-8.75911
▁plus	-8.76061
▁change	-8.76146
▁elastic	-8.7615
▁rather	-8.7633
▁case	-8.7645
▁kids	-8.76452
▁somewhat	-8.76532
▁THE	-8.76609
▁clean	-8.76784
▁neck	-8.7724
▁such	-8.77597
▁making	-8.77778
▁soon	-8.77824
▁11	-8.77832
w	-8.7819
▁between	-8.78335
▁started	-8.78767
▁products	-8.78787
▁show	-8.78906
▁XL	-8.78925
▁inseam	-8.79228
▁etc	-8.79265
▁line	-8.79276
▁fall	-8.79459
▁cost	-8.795
▁hand	-8.79612
▁sent	-8.79805
▁available	-8.80013
▁seller	-8.80155
▁myself	-8.80176
▁due	-8.80193
▁aren	-8.80286
▁Sperry	-8.80353
▁flat	-8.80725
▁zipper	-8.80801
▁construction	-8.8093
▁stylish	-8.81306
▁Overall	-8.81494
▁stuff	-8.81518
▁near	-8.81521
▁during	-8.81684
▁Have	-8.82082
▁sized	-8.82392
▁brown	-8.82445
▁each	-8.82826
▁kept	-8.83018
▁left	-8.83018
▁What	-8.83449
▁fair	-8.83593
▁Looks	-8.83602
▁person	-8.83781
▁NOT	-8.84
▁Chucks	-8.84286
o	-8.84323
▁someone	-8.84393
▁One	-8.84416
▁Other	-8.84769
▁mine	-8.8498
▁night	-8.85377
▁beat	-8.85409
▁date	-8.8545
▁skin	-8.85552
th	-8.85725
▁company	-8.8614
▁lasted	-8.86716
▁goes	-8.87233
▁washes	-8.87384
▁original	-8.87492
▁send	-8.87612
▁help	-8.87752
▁wonderful	-8.88051
▁life	-8.8814
▁model	-8.88204
▁Quality	-8.88572
▁returning	-8.89082
▁body	-8.89375
▁compared	-8.89604
▁hope	-8.89717
▁D	-8.89729
▁chain	-8.89843
▁Levi	-8.89855
▁issues	-8.90251
▁Size	-8.90719
▁comes	-8.90786
▁sandal	-8.91103
shirt	-8.91254
▁finally	-8.91438
▁version	-8.91519
▁live	-8.91573
▁Only	-8.9171
▁point	-8.9198
▁tend	-8.92225
▁recommended	-8.9273
▁exact	-8.9281
▁prefer	-8.93005
▁AND	-8.93127
▁Chuck	-8.93224
▁W	-8.93341
▁huge	-8.93574
▁--	-8.93818
▁wider	-8.94052
▁pull	-8.94064
M	-8.94065
▁soles	-8.94186
▁star	-8.94421
▁month	-8.94746
▁guy	-8.94956
▁duty	-8.95062
▁cheaper	-8.95548
or	-8.95594
▁simple	-8.95692
▁often	-8.95969
es	-8.96307
▁gets	-8.96578
▁carry	-8.97112
▁sweatshirt	-8.97624
▁pay	-8.97668
▁seemed	-8.97849
it	-8.98167
▁smooth	-8.98318
less	-8.98339
▁knew	-8.98353
▁held	-8.98364
▁advertised	-8.98588
▁piece	-8.98752
▁smell	-8.98803
▁complaint	-8.98957
▁wet	-8.99259
▁rough	-8.99481
▁20	-8.99731
▁comfortably	-8.99936
▁woman	-9.00106
▁add	-9.00763
▁!	-9.00963
▁chart	-9.01034
▁replacement	-9.0104
▁lightweight	-9.01088
▁Easy	-9.01093
▁let	-9.01211
T	-9.01304
▁ran	-9.01344
▁quick	-9.01416
▁local	-9.01442
▁cup	-9.02243
▁care	-9.02296
▁Best	-9.02312
▁Ordered	-9.02384
▁particular	-9.0247
▁knee	-9.02673
▁weeks	-9.02687
▁similar	-9.02704
▁otherwise	-9.02962
2	-9.02987
▁compliments	-9.03079
▁holds	-9.03084
▁L	-9.03182
W	-9.03219
▁re	-9.03308
▁Super	-9.03685
▁amazing	-9.03785
▁Awesome	-9.0416
▁M	-9.04537
▁durability	-9.04593
▁Really	-9.04667
▁trip	-9.04788
▁Otherwise	-9.04831
▁solid	-9.04973
▁Keens	-9.05085
▁purchasing	-9.05548
▁hoping	-9.05559
▁VERY	-9.0604
▁Highly	-9.0607
▁Merrell	-9.06294
▁third	-9.06521
but	-9.06806
▁stitching	-9.07018
▁thighs	-9.07144
▁although	-9.07262
▁Got	-9.07711
▁stockings	-9.07779
▁x	-9.07864
▁believe	-9.07971
▁pink	-9.08015
▁P	-9.08224
▁canvas	-9.08729
▁attractive	-9.09228
▁hands	-9.09264
▁rubber	-9.09418
▁cannot	-9.09436
▁gotten	-9.09733
▁plan	-9.10353
▁Don	-9.10567
▁previous	-9.10638
▁snow	-9.10681
▁tighter	-9.10701
▁finding	-9.10824
▁Exact	-9.11026
▁holes	-9.11042
▁Like	-9.11421
▁crotch	-9.11502
▁okay	-9.11506
▁whole	-9.11518
▁chucks	-9.1154
▁ended	-9.11697
▁home	-9.11743
▁doing	-9.11771
▁cards	-9.118
▁uniform	-9.1182
▁five	-9.12017
▁C	-9.12332
▁forever	-9.12738
▁future	-9.12784
▁lbs	-9.13062
▁fan	-9.13111
to	-9.13256
not	-9.1333
▁kid	-9.13399
▁friend	-9.13554
▁plenty	-9.13826
▁dryer	-9.13903
!!"	-9.14204
▁hat	-9.14292
▁lots	-9.14511
▁stand	-9.14578
▁wait	-9.14752
▁broke	-9.15116
▁silver	-9.15145
▁sports	-9.15428
▁free	-9.15606
▁metal	-9.15674
▁experience	-9.15913
▁tad	-9.15945
▁Still	-9.15951
▁choice	-9.16317
▁thigh	-9.1633
C	-9.16756
▁battery	-9.17012
▁completely	-9.17311
▁green	-9.17559
they	-9.17731
Fit	-9.17767
▁older	-9.17784
▁surprised	-9.18139
▁move	-9.18147
▁sometimes	-9.18178
▁pain	-9.18504
▁rugged	-9.18647
▁tops	-9.1872
▁amazon	-9.18938
▁done	-9.19196
▁head	-9.19403
▁denim	-9.19473
▁match	-9.1954
▁8.5	-9.1955
▁shorter	-9.19601
▁name	-9.19606
▁lighter	-9.1962
▁course	-9.19747
▁Halloween	-9.19749
▁today	-9.20113
▁H	-9.20275
▁standard	-9.20747
▁decent	-9.21048
▁together	-9.21429
▁start	-9.21448
▁provide	-9.21472
L	-9.21645
▁continue	-9.21754
▁sneaker	-9.21887
▁control	-9.22001
▁supportive	-9.22008
▁hurt	-9.22327
▁wedding	-9.22573
▁office	-9.22831
▁Even	-9.22863
▁noticed	-9.22918
shirts	-9.23084
▁barely	-9.23457
▁loops	-9.23521
▁jewelry	-9.23708
▁Maybe	-9.23717
▁ankle	-9.23911
▁above	-9.23998
▁7.5	-9.24019
▁grandson	-9.24183
able	-9.24226
▁mind	-9.24294
▁paid	-9.24583
▁us	-9.2465
▁sheer	-9.24812
X	-9.24865
▁higher	-9.25022
▁waste	-9.25108
▁GREAT	-9.25184
▁double	-9.25193
!!!!	-9.25209
▁complaints	-9.25237
▁shoulder	-9.25559
▁OK	-9.25773
▁boyfriend	-9.26046
▁granddaughter	-9.26254
▁sleeves	-9.2633
▁description	-9.2634
▁reading	-9.26781
▁TO	-9.26793
▁four	-9.26925
▁enjoy	-9.27043
▁Always	-9.27264
▁average	-9.27315
▁hole	-9.27479
▁Definitely	-9.27847
▁lower	-9.279
▁package	-9.28248
▁...	-9.28539
▁difference	-9.28985
▁feature	-9.28999
▁hoodie	-9.29
▁panties	-9.29082
Perfect	-9.29151
▁accurate	-9.29556
▁gone	-9.30101
▁boat	-9.30102
▁except	-9.30164
▁birthday	-9.30577
▁874	-9.30598
▁reasonable	-9.30599
▁hour	-9.30882
▁exchange	-9.3108
▁phone	-9.31162
▁adjust	-9.31182
▁bright	-9.31381
▁purse	-9.31486
▁open	-9.31552
▁numbers	-9.31686
▁lost	-9.32259
▁easier	-9.32451
▁cups	-9.32452
▁seen	-9.32915
▁Unfortunately	-9.33099
l	-9.33255
▁underneath	-9.33398
▁Was	-9.33763
▁slacks	-9.33811
▁slim	-9.33825
▁thanks	-9.34061
▁coming	-9.34084
▁13	-9.34219
▁thicker	-9.34464
32	-9.34622
▁gives	-9.34732
▁sleeve	-9.34888
▁clasp	-9.34899
▁everyone	-9.35021
▁cover	-9.35054
▁lace	-9.3521
▁remember	-9.35218
▁Its	-9.35614
▁later	-9.35621
▁broken	-9.3569
▁roomy	-9.35877
▁feeling	-9.35985
▁itself	-9.36301
▁tiny	-9.36305
▁skinny	-9.36308
▁chest	-9.3652
▁outfit	-9.36621
▁twice	-9.36631
▁immediately	-9.36635
▁9.5	-9.36784
▁holding	-9.36897
▁padding	-9.36959
▁condition	-9.3696
▁thank	-9.37047
▁lose	-9.37076
▁saw	-9.37295
E	-9.37348
▁keeping	-9.37485
=	-9.37633
▁fun	-9.3766
▁within	-9.37872
▁navy	-9.37957
▁changed	-9.38181
▁Look	-9.3823
▁fantastic	-9.38285
▁anymore	-9.38297
▁throw	-9.38305
lbs	-9.3859
▁shipped	-9.38621
▁At	-9.38651
c	-9.388
..."	-9.38901
▁With	-9.39306
▁girl	-9.39916
▁weird	-9.39971
▁hate	-9.40102
▁100%	-9.4066
▁across	-9.40701
▁replaced	-9.40941
Fits	-9.40974
▁fault	-9.40992
▁33	-9.41171
▁42	-9.41204
▁dirty	-9.41375
▁given	-9.41807
▁IT	-9.42108
▁suggest	-9.42184
▁helps	-9.42288
▁Pants	-9.42322
▁supposed	-9.42332
▁Hanes	-9.42388
▁E	-9.42513
g	-9.4253
▁styles	-9.42599
▁darker	-9.42799
▁15	-9.42814
▁lasting	-9.4295
▁business	-9.43077
▁amount	-9.43123
▁Seem	-9.43124
30	-9.43125
▁shoulders	-9.43198
▁built	-9.43431
▁heavier	-9.43434
▁expecting	-9.4352
▁arms	-9.43638
▁sides	-9.43656
which	-9.43932
▁sweat	-9.43933
▁become	-9.4423
▁K	-9.44479
▁rest	-9.44544
▁thinking	-9.44794
▁dad	-9.44863
▁trouble	-9.45195
▁ice	-9.45323
▁priced	-9.45472
Not	-9.45524
As	-9.45626
▁baby	-9.45917
▁sit	-9.4608
▁Be	-9.46308
▁To	-9.46426
▁tear	-9.46644
▁Fast	-9.46671
great	-9.46805
▁On	-9.46898
▁tennis	-9.47006
▁anyway	-9.47148
!!!"	-9.47303
▁relaxed	-9.47411
▁bulky	-9.47752
▁Wear	-9.47781
▁items	-9.47899
▁Men	-9.4792
ie	-9.48069
▁child	-9.48105
▁resistant	-9.48121
(	-9.48217
▁play	-9.48314
▁remove	-9.48346
▁giving	-9.48471
▁miles	-9.48743
▁delivered	-9.4886
▁means	-9.4889
▁check	-9.49129
▁Arrived	-9.49261
▁Husband	-9.49265
▁F	-9.49267
▁against	-9.49281
▁number	-9.49378
▁professional	-9.4949
▁recently	-9.49997
▁belly	-9.50391
▁along	-9.50488
▁w	-9.50887
▁Wrangler	-9.509
▁Buy	-9.51365
▁washings	-9.51464
▁below	-9.51513
▁panty	-9.51651
very	-9.51751
nd	-9.51925
▁jean	-9.52053
▁rain	-9.52067
k	-9.5237
est	-9.5261
▁FOR	-9.52624
▁cause	-9.52711
▁pounds	-9.52748
▁air	-9.52862
▁mother	-9.53008
▁Classic	-9.53263
▁hips	-9.53586
▁Taylor	-9.53606
▁Shoes	-9.53689
h	-9.53722
▁ride	-9.53931
▁sale	-9.53992
▁Color	-9.54013
▁fell	-9.54088
▁idea	-9.54164
▁hit	-9.54508
▁opinion	-9.54566
▁anywhere	-9.54585
.....	-9.54638
like	-9.54745
▁customer	-9.54799
▁actual	-9.54872
▁shopping	-9.54962
▁layer	-9.54967
▁Go	-9.55083
made	-9.55174
▁stated	-9.55398
▁Saucony	-9.55586
▁nylon	-9.55595
▁10.5	-9.55726
▁Since	-9.55783
▁Run	-9.55798
▁photo	-9.5599
▁carhartt	-9.56094
▁machine	-9.56149
▁thinner	-9.56158
al	-9.5638
b	-9.57037
▁Purchase	-9.57075
If	-9.57115
▁matter	-9.57204
▁Large	-9.57791
▁Work	-9.57807
rd	-9.57812
▁takes	-9.58068
▁BUT	-9.58173
▁adjustable	-9.58183
▁height	-9.58185
▁non	-9.58238
▁reviewers	-9.58543
▁told	-9.5884
▁multiple	-9.58985
▁inexpensive	-9.59022
▁minutes	-9.59176
ref	-9.59389
▁shows	-9.59475
▁Dockers	-9.59508
▁certainly	-9.59861
▁wrinkle	-9.59975
▁shop	-9.60075
▁poor	-9.60129
▁wind	-9.60225
▁label	-9.60266
so	-9.60322
my	-9.60368
▁class	-9.60389
▁trees	-9.60491
▁added	-9.60532
▁simply	-9.60645
=""	-9.60661
▁Some	-9.60664
▁appears	-9.60682
▁tag	-9.60895
▁basic	-9.61062
▁dial	-9.61063
▁falling	-9.61348
▁base	-9.61483
▁Product	-9.61575
as	-9.61635
▁bill	-9.61669
▁straight	-9.61828
▁tie	-9.61867
▁pictured	-9.61902
▁figure	-9.6221
▁space	-9.62646
▁careful	-9.6265
▁Wish	-9.6278
▁purpose	-9.62983
▁slide	-9.62996
▁designed	-9.63099
▁knees	-9.63219
een	-9.63343
▁Order	-9.63401
▁ripped	-9.6361
▁fashion	-9.63744
▁forward	-9.63746
▁suit	-9.63949
▁middle	-9.64039
▁credit	-9.64048
▁offer	-9.64213
▁spend	-9.64343
▁seam	-9.64411
▁six	-9.64475
▁seams	-9.64563
▁grow	-9.64639
▁iron	-9.64692
▁worry	-9.64777
▁dressy	-9.64785
▁Most	-9.64828
▁sexy	-9.65353
▁gray	-9.65356
▁Returned	-9.65389
▁First	-9.65442
▁spring	-9.65681
▁consider	-9.65787
▁Happy	-9.6579
▁constructed	-9.65792
▁card	-9.6582
▁US	-9.66504
▁everywhere	-9.66681
▁heels	-9.66721
Excellent	-9.66912
link	-9.67259
▁present	-9.67337
▁adorable	-9.67555
▁lining	-9.67564
?"	-9.67685
▁stick	-9.67731
▁mean	-9.6793
▁yard	-9.68012
▁gold	-9.68024
▁typically	-9.6808
Just	-9.68258
▁chance	-9.6838
▁Dickie	-9.6841
▁protection	-9.68458
▁mom	-9.68495
▁properly	-9.68535
▁spot	-9.68853
▁brother	-9.68907
▁worried	-9.68908
▁allow	-9.69116
▁tan	-9.69202
▁14	-9.6929
▁period	-9.69311
▁underwear	-9.69376
▁travel	-9.69393
▁breaking	-9.69403
▁appear	-9.69672
▁waterproof	-9.69698
▁upper	-9.69826
▁odd	-9.70189
f	-9.70227
▁family	-9.70278
▁father	-9.70281
▁6.5	-9.70294
no	-9.70361
▁em	-9.70384
▁G	-9.7057
▁Durable	-9.70771
▁asked	-9.7088
▁car	-9.7129
▁buckle	-9.71505
▁USA	-9.71554
▁deep	-9.71648
F	-9.71761
▁girls	-9.72061
▁soften	-9.72093
▁traction	-9.72139
ther	-9.72229
▁refund	-9.72497
▁insoles	-9.72623
▁per	-9.72676
▁slots	-9.72786
▁stretchy	-9.72806
▁hood	-9.72903
▁Newport	-9.73066
▁wants	-9.73072
▁taking	-9.73079
▁grey	-9.73087
▁blisters	-9.73095
)"	-9.73255
▁fix	-9.73297
▁..	-9.73418
▁cloth	-9.73425
R	-9.73454
▁h	-9.73629
▁31	-9.73642
▁d	-9.73827
▁touch	-9.73872
en	-9.74207
▁ask	-9.7442
hile	-9.74494
▁silky	-9.74529
em	-9.74559
▁Keep	-9.74872
▁places	-9.7489
▁Plus	-9.74988
▁outdoor	-9.74991
▁shrinkage	-9.74993
▁THEM	-9.75018
▁Beautiful	-9.75049
▁range	-9.75107
▁choose	-9.75144
▁entire	-9.75369
▁natural	-9.75381
▁toddler	-9.75469
▁SO	-9.7581
▁stop	-9.75972
▁fat	-9.76034
p	-9.76364
▁heat	-9.76373
▁hubby	-9.7644
▁insole	-9.76569
▁likely	-9.76623
▁Way	-9.76706
P	-9.76742
▁clear	-9.76759
▁Works	-9.77148
▁tee	-9.77174
▁notice	-9.77398
▁IN	-9.77442
▁impressed	-9.77933
▁Top	-9.77979
▁hook	-9.78326
▁sort	-9.78487
▁wrists	-9.78583
up	-9.78617
▁pack	-9.78685
▁friends	-9.78752
▁flimsy	-9.78916
▁velcro	-9.78917
▁bibs	-9.79037
putting	-9.79169
▁build	-9.79212
Ordered	-9.7924
We	-9.79418
▁rating	-9.79444
▁constantly	-9.79446
▁warmer	-9.79475
▁shown	-9.7949
▁dresses	-9.79495
▁tights	-9.79863
▁keds	-9.79955
▁hang	-9.80199
based	-9.8039
▁functional	-9.80442
▁materials	-9.80475
at	-9.80606
size	-9.80802
this	-9.80832
▁age	-9.80948
▁Everything	-9.80967
▁cant	-9.81022
▁ankles	-9.81101
▁weren	-9.81133
▁50	-9.81497
▁turned	-9.81533
ting	-9.81745
▁links	-9.81766
For	-9.81786
▁sharp	-9.81929
▁Bali	-9.81977
▁de	-9.82193
▁update	-9.82417
▁stays	-9.82434
▁excited	-9.82487
▁website	-9.82487
▁hoped	-9.82815
▁fade	-9.82961
for	-9.83004
▁appearance	-9.83009
▁THESE	-9.83024
+	-9.83031
▁Nothing	-9.83044
▁option	-9.8313
▁glue	-9.83413
▁mistake	-9.83502
▁thrilled	-9.83531
▁True	-9.83561
▁riding	-9.83565
▁guys	-9.83754
▁kinda	-9.84194
▁expectations	-9.84226
Got	-9.84527
▁gym	-9.8459
▁adult	-9.84683
▁glove	-9.84696
▁bother	-9.84739
▁softer	-9.84841
▁inserts	-9.84851
▁finish	-9.84881
▁Levis	-9.84935
▁important	-9.85025
▁Buxton	-9.8512
▁s	-9.85281
▁opened	-9.85303
▁roll	-9.85508
▁protect	-9.85524
▁proper	-9.8556
▁Once	-9.85681
▁MY	-9.85686
▁lol	-9.85838
▁taken	-9.85873
▁round	-9.86114
▁department	-9.86191
▁early	-9.86225
▁Although	-9.86282
O	-9.86456
&	-9.86527
▁understand	-9.86599
▁fitted	-9.8662
▁chose	-9.86705
▁affordable	-9.86734
▁single	-9.86735
▁boy	-9.86882
▁late	-9.87232
▁mens	-9.87267
▁knock	-9.87277
▁dog	-9.87366
▁closure	-9.87403
▁figured	-9.87447
he	-9.87533
▁correctly	-9.87576
▁stretched	-9.87709
▁Did	-9.87805
▁Then	-9.8783
▁mentioned	-9.87911
com	-9.87914
ion	-9.88122
good	-9.88176
▁bands	-9.88303
▁note	-9.88377
▁practical	-9.88384
fit	-9.88404
G	-9.88644
▁dirt	-9.88867
▁Material	-9.88949
just	-9.8928
▁world	-9.89482
▁Made	-9.89518
▁underwire	-9.89629
▁leave	-9.89637
▁Wor	-9.89696
▁known	-9.8982
▁total	-9.89951
totally	-9.90475
▁weigh	-9.90554
▁flattering	-9.90623
▁hair	-9.90765
▁realize	-9.91045
▁cargo	-9.91301
▁Cute	-9.914
▁ten	-9.91644
▁typical	-9.91646
▁coverage	-9.91741
▁Make	-9.91802
▁sold	-9.91828
▁logo	-9.91904
▁im	-9.92068
▁stock	-9.92115
▁torso	-9.92304
▁buttons	-9.92358
▁happened	-9.92406
▁Do	-9.9255
▁ARE	-9.92614
▁ready	-9.92687
▁necklace	-9.93066
▁flip	-9.93073
▁repair	-9.93399
▁reliable	-9.93457
▁18	-9.93598
▁rub	-9.93658
these	-9.93852
▁Get	-9.9399
▁incredibl	-9.94002
▁variety	-9.94038
▁faded	-9.94183
▁tree	-9.94248
▁rip	-9.94283
▁IS	-9.9448
▁Pretty	-9.9468
▁Shoe	-9.94903
▁secure	-9.9499
Dickies	-9.95074
▁pick	-9.95098
▁hem	-9.95148
▁market	-9.9522
▁THIS	-9.95226
▁beach	-9.95338
▁call	-9.95339
▁aware	-9.95446
LY	-9.95505
▁hooks	-9.95759
So	-9.95811
▁arm	-9.9591
▁special	-9.96148
▁29	-9.96153
▁consistent	-9.96301
▁packaging	-9.964
▁impossible	-9.96401
▁tired	-9.9642
▁required	-9.96501
▁khaki	-9.96655
truly	-9.96997
▁Wacoal	-9.97015
love	-9.97154
▁considering	-9.97171
▁morning	-9.97231
▁site	-9.97297
▁push	-9.97401
▁c	-9.97575
▁Feel	-9.9762
▁Black	-9.9763
▁uses	-9.97633
▁whatever	-9.97677
▁mostly	-9.9773
▁season	-9.97843
▁shade	-9.97848
ers	-9.97905
▁R	-9.97909
▁WAY	-9.97995
▁Price	-9.98036
▁abuse	-9.9808
▁loosen	-9.98183
▁slipping	-9.98212
▁flexible	-9.98213
▁THEY	-9.98235
▁listed	-9.98256
▁sweater	-9.98511
▁washer	-9.98616
▁GOOD	-9.98822
▁annoying	-9.98824
▁sitting	-9.98825
▁Waist	-9.98859
▁arches	-9.98911
▁called	-9.98938
▁meet	-9.99025
▁movement	-9.99056
▁save	-9.99302
▁nursing	-9.99432
▁happen	-9.99459
ness	-9.99481
▁Didn	-9.99533
▁earrings	-9.99569
▁pulled	-9.99739
▁28	-9.99792
▁Never	-10.0006
▁step	-10.0024
H	-10.0025
▁packaged	-10.0031
▁addition	-10.0065
▁walked	-10.0065
▁shrunk	-10.0068
▁waistband	-10.007
▁stain	-10.0071
▁conditions	-10.0123
▁Should	-10.0125
▁sun	-10.0129
▁active	-10.0131
▁athletic	-10.0131
▁saying	-10.0147
▁briefs	-10.0168
▁Loved	-10.0177
▁outdoors	-10.0191
▁yellow	-10.0192
▁China	-10.0192
▁town	-10.0192
▁glasses	-10.0192
▁orange	-10.0193
!)	-10.0195
▁Heavy	-10.0196
▁measured	-10.0205
▁/	-10.0236
▁closed	-10.024
▁footwear	-10.0258
▁seat	-10.0259
▁bend	-10.0269
nice	-10.0274
▁previously	-10.028
▁doubt	-10.0285
Comfortable	-10.0299
came	-10.03
▁boys	-10.0304
▁plain	-10.0321
▁breast	-10.034
▁insert	-10.0341
▁negative	-10.0349
▁Indiglo	-10.0352
▁bags	-10.0364
▁517	-10.037
▁please	-10.0372
▁possible	-10.0383
▁stuck	-10.0383
▁padded	-10.0385
▁hip	-10.04
▁indiglo	-10.0413
▁walks	-10.0424
▁happier	-10.0448
▁unfortunately	-10.045
▁outfits	-10.0452
u	-10.0452
▁complain	-10.046
▁b	-10.0464
▁offered	-10.0464
34	-10.0491
ies	-10.0498
3	-10.0498
▁sewn	-10.0514
▁awhile	-10.0527
▁belts	-10.0532
▁Ariat	-10.0546
▁minute	-10.0549
out	-10.057
▁ring	-10.0578
▁promised	-10.058
▁additional	-10.058
▁generally	-10.0587
▁measure	-10.0601
▁breasts	-10.0611
▁Nike	-10.0611
XL	-10.0621
le	-10.0624
ic	-10.0625
▁35	-10.0641
▁terrible	-10.0644
▁relative	-10.0644
▁sand	-10.0647
▁young	-10.0655
▁lift	-10.0656
▁originally	-10.0675
DD	-10.0684
ecause	-10.0698
Well	-10.0699
▁opening	-10.0707
▁niece	-10.071
▁depending	-10.0716
▁Use	-10.0735
▁meant	-10.0741
▁Jeans	-10.0749
▁appreciate	-10.0765
▁versatile	-10.0777
▁yourself	-10.0777
▁ground	-10.0777
9	-10.0786
▁whe	-10.0788
▁44	-10.0797
▁removed	-10.0799
cr	-10.0817
▁reorder	-10.0821
ce	-10.0821
▁receive	-10.0831
▁general	-10.0834
▁luck	-10.0838
▁High	-10.0839
▁retail	-10.0841
▁spent	-10.0844
▁ladies	-10.0844
▁purple	-10.0844
▁11.5	-10.0845
▁cell	-10.0846
▁Comfy	-10.0848
▁sock	-10.0858
▁starting	-10.0876
▁snap	-10.0878
▁manufacturer	-10.0883
▁gloves	-10.0898
ING	-10.09
▁advice	-10.0911
▁sister	-10.0911
▁dried	-10.0912
▁scratchy	-10.0915
mm	-10.0919
N	-10.0927
▁function	-10.0949
▁according	-10.097
▁mail	-10.0982
▁concerned	-10.0986
▁none	-10.0991
▁beautifully	-10.1017
Really	-10.1029
▁16	-10.103
▁crazy	-10.1048
▁Medium	-10.105
▁including	-10.105
▁instructions	-10.1053
▁ironing	-10.1068
▁covered	-10.1072
▁nylons	-10.1077
▁bunch	-10.1094
old	-10.1109
▁collar	-10.1117
▁breathable	-10.1117
is	-10.1122
▁useful	-10.1132
▁pieces	-10.1135
▁rocks	-10.1141
▁selection	-10.1159
K	-10.117
▁pictures	-10.117
▁vacation	-10.1186
▁clearly	-10.12
▁turn	-10.1206
sp	-10.1213
▁cushion	-10.1227
▁lovely	-10.1236
Y	-10.1244
▁OF	-10.1256
▁hassle	-10.1256
▁avoid	-10.1256
▁literally	-10.1257
▁closer	-10.1263
ish	-10.1313
▁various	-10.1327
▁petite	-10.1327
▁stopped	-10.1327
▁reasonably	-10.1328
▁classy	-10.1337
▁layers	-10.1357
▁Taylors	-10.136
1	-10.136
▁loop	-10.1374
After	-10.1378
▁imagine	-10.1386
▁Glad	-10.14
▁rise	-10.1402
▁yes	-10.1406
▁36""	-10.1418
8	-10.142
day	-10.142
▁X	-10.1423
▁provides	-10.1426
▁grip	-10.1429
▁trick	-10.1435
▁safe	-10.1458
▁main	-10.1459
espite	-10.146
▁shiny	-10.147
▁Yes	-10.1478
▁standing	-10.1504
▁dollars	-10.1513
▁alot	-10.1514
▁rock	-10.1515
▁pre	-10.1519
▁mu	-10.1531
▁lack	-10.1537
▁major	-10.1541
▁process	-10.1541
▁Small	-10.1544
▁hike	-10.1576
▁crease	-10.1577
▁handle	-10.158
▁mid	-10.159
▁showing	-10.1591
▁Women	-10.1592
Purchase	-10.1594
▁!!	-10.1613
▁traditional	-10.1615
ous	-10.1617
▁Came	-10.1618
▁Original	-10.1618
▁Need	-10.1623
▁disappointing	-10.1624
▁clip	-10.1669
Jungle	-10.1686
▁cedar	-10.1686
▁horrible	-10.1686
▁New	-10.1688
▁Worth	-10.1689
▁activities	-10.169
▁unlike	-10.1692
▁looser	-10.1701
▁sell	-10.1723
▁n	-10.1758
▁lady	-10.176
▁Venice	-10.176
▁Oh	-10.1762
▁handy	-10.1782
▁helped	-10.18
▁pricey	-10.1802
▁nephew	-10.1834
▁basically	-10.1834
▁lasts	-10.1842
▁trousers	-10.1857
▁carrying	-10.1877
▁mention	-10.1885
▁*	-10.1903
robably	-10.1907
▁fishing	-10.1914
▁FIT	-10.1982
▁Shipping	-10.1984
an	-10.1997
▁zip	-10.2001
▁32""	-10.2011
▁y	-10.2026
▁closet	-10.2035
▁e	-10.2046
▁Both	-10.2061
▁Same	-10.2063
▁:(	-10.2063
▁thickness	-10.2063
▁American	-10.2064
▁attached	-10.2069
▁bucks	-10.2078
▁test	-10.2094
▁timely	-10.2094
▁NO	-10.2095
▁34""	-10.2103
▁require	-10.2104
▁suppose	-10.2124
▁hosiery	-10.2136
cm	-10.2154
▁eye	-10.2168
▁ship	-10.2191
▁bib	-10.2194
▁yr	-10.2204
nother	-10.2205
▁surgery	-10.2213
▁ALL	-10.2215
▁leggings	-10.2217
▁comments	-10.2218
▁Every	-10.2232
▁warmth	-10.2235
▁certain	-10.2281
▁cap	-10.2283
▁Walmart	-10.2291
▁PERFECT	-10.2291
▁delicate	-10.2291
▁elegant	-10.2291
▁noticeable	-10.2292
▁Length	-10.2292
▁Much	-10.2293
▁lines	-10.2304
▁forget	-10.233
▁stains	-10.2332
▁pulling	-10.2337
What	-10.2349
product	-10.2349
▁firm	-10.2363
▁jackets	-10.2367
▁Skagen	-10.2369
▁nicer	-10.2371
▁Long	-10.2371
▁tone	-10.2398
▁locally	-10.2401
▁womens	-10.2406
▁N	-10.2407
▁areas	-10.2415
▁sending	-10.2418
us	-10.242
▁setting	-10.2431
▁keys	-10.2435
▁30""	-10.2444
▁Velcro	-10.2448
▁Prime	-10.2448
▁country	-10.2448
>	-10.2454
if	-10.2457
▁u	-10.2468
▁narrower	-10.2482
year	-10.2489
▁tread	-10.2509
▁options	-10.2513
U	-10.252
▁Soft	-10.2532
▁labeled	-10.2548
▁5.5	-10.2548
▁ahead	-10.2558
▁surprise	-10.2577
▁colour	-10.259
▁weekend	-10.2592
▁skirts	-10.2593
▁wise	-10.2615
▁cushioning	-10.2621
▁cooler	-10.2624
▁inner	-10.2632
▁colored	-10.2642
ar	-10.2647
all	-10.2658
Have	-10.2665
▁current	-10.2678
▁Update	-10.2679
▁SIZE	-10.2684
ittle	-10.2687
▁earlier	-10.2687
▁Columbia	-10.2688
▁Of	-10.2688
▁allows	-10.2696
▁hanging	-10.2708
▁Item	-10.2714
un	-10.2747
▁slight	-10.2759
▁cuffs	-10.276
▁fresh	-10.2769
▁discomfort	-10.2769
▁workmanship	-10.2769
▁measurements	-10.2769
▁identical	-10.2769
▁fancy	-10.2769
▁Watch	-10.2771
▁Sizing	-10.2771
▁25	-10.2784
▁tags	-10.2792
off	-10.2823
▁bring	-10.2836
▁Last	-10.2841
▁Daughter	-10.2852
▁stocking	-10.2855
▁features	-10.2863
▁wrinkles	-10.2876
▁wanting	-10.2895
normal	-10.2903
law	-10.2918
hook	-10.292
▁occasions	-10.2924
▁highs	-10.2926
▁hemmed	-10.2934
▁afraid	-10.294
▁slippers	-10.2957
4	-10.2981
▁female	-10.3
▁texture	-10.3004
▁chuck	-10.3004
▁prevent	-10.3009
▁awful	-10.3017
▁eventually	-10.3017
▁perhaps	-10.3018
▁YOU	-10.3018
▁Fabric	-10.3019
▁nude	-10.3021
▁p	-10.3044
▁$20	-10.3072
line	-10.3089
▁section	-10.309
▁cheaply	-10.3096
▁brought	-10.3101
▁More	-10.3101
▁beige	-10.3102
▁ON	-10.3103
▁drying	-10.3105
▁outer	-10.3106
▁Wonderful	-10.3108
▁Carhart	-10.3112
▁nor	-10.3138
▁party	-10.3141
Too	-10.3169
▁Hard	-10.3178
▁wardrobe	-10.3185
▁Hope	-10.3186
▁suspenders	-10.3197
▁learning	-10.3198
▁waiting	-10.3228
5	-10.3234
▁lined	-10.3246
▁neat	-10.3264
▁Though	-10.3265
▁convenient	-10.3271
▁!!!	-10.3302
First	-10.3337
When	-10.3337
▁fill	-10.3348
▁post	-10.3352
▁thru	-10.3357
▁contact	-10.3357
▁XXL	-10.339
▁separate	-10.3411
▁cross	-10.3421
▁learn	-10.3421
▁rate	-10.3436
▁Does	-10.3443
UTF	-10.3443
▁themselves	-10.3444
▁necessary	-10.3444
▁Cheap	-10.345
▁bottoms	-10.3457
▁mesh	-10.3462
dp	-10.3473
▁complete	-10.351
▁dig	-10.3515
▁sport	-10.3521
▁tongue	-10.3532
▁replacing	-10.3532
▁frame	-10.3555
▁form	-10.3566
▁arrive	-10.3599
Super	-10.36
▁la	-10.3601
perfect	-10.3602
▁paper	-10.3611
▁attention	-10.362
▁military	-10.3621
▁Dad	-10.3621
▁slippery	-10.3622
▁helpful	-10.3622
▁hunting	-10.3625
▁promptly	-10.3626
▁covers	-10.363
▁lifting	-10.3639
▁yrs	-10.3647
time	-10.365
▁wearable	-10.3657
rv	-10.3659
▁con	-10.367
▁khakis	-10.3674
▁mess	-10.3682
▁drop	-10.3702
▁pendant	-10.3702
▁floor	-10.3703
▁ugly	-10.3709
▁breathe	-10.371
▁exception	-10.3712
7	-10.3726
▁tho	-10.3733
work	-10.3754
▁comment	-10.3787
▁fake	-10.3792
▁book	-10.3794
▁girlfriend	-10.38
▁begin	-10.3801
▁Big	-10.3803
▁marked	-10.3809
▁law	-10.382
▁100	-10.3822
ft	-10.3825
▁checked	-10.3826
▁wood	-10.3841
▁Mocs	-10.3868
nna	-10.3876
▁compartments	-10.3882
▁moving	-10.389
▁data	-10.389
▁minor	-10.3891
▁stomach	-10.3891
▁honestly	-10.3896
▁proof	-10.3897
▁Finally	-10.3899
▁Un	-10.3915
▁WAS	-10.3921
▁count	-10.3943
▁blister	-10.3967
▁blend	-10.3978
▁church	-10.3982
▁terrific	-10.3982
▁HAVE	-10.3983
▁field	-10.3983
▁:-)	-10.3984
▁polyester	-10.3984
▁U	-10.3984
▁mall	-10.3985
▁Received	-10.3989
▁Shirt	-10.3989
▁TOO	-10.399
ED	-10.3992
▁bust	-10.3997
ity	-10.4002
▁pointy	-10.4008
▁growing	-10.4009
go	-10.4009
▁adjusted	-10.4014
age	-10.403
arp	-10.4065
▁garment	-10.4071
▁exercise	-10.4075
▁penny	-10.4075
▁2""	-10.4079
▁Tall	-10.4085
▁picked	-10.4092
el	-10.4126
▁tape	-10.4138
▁disappoint	-10.414
▁heal	-10.4142
▁+	-10.4147
▁surfaces	-10.4159
▁mask	-10.4169
▁gear	-10.417
▁obviously	-10.4177
▁Ok	-10.4177
▁Wash	-10.4188
▁wire	-10.4198
▁Recommend	-10.4252
▁motorcycle	-10.4263
▁Navy	-10.4264
▁Why	-10.4265
▁lay	-10.4267
▁spare	-10.427
one	-10.428
linked	-10.4309
▁fully	-10.4309
▁g	-10.4318
▁search	-10.4334
▁tuck	-10.4334
▁press	-10.4338
Carhartt	-10.4342
▁compare	-10.4345
▁center	-10.4348
▁recent	-10.4349
▁appropriate	-10.4353
▁vendor	-10.4355
8"">	-10.4358
▁measurement	-10.4358
▁visible	-10.4358
▁children	-10.4359
</	-10.4365
z	-10.4366
▁Has	-10.4367
▁currently	-10.4369
▁Time	-10.4371
*	-10.4381
=""/	-10.4385
ped	-10.4387
▁suggested	-10.4388
▁sweatshirts	-10.439
▁24	-10.4407
▁paying	-10.4413
▁His	-10.4415
▁Washe	-10.4425
▁pass	-10.4428
▁trail	-10.4439
▁Hopefully	-10.4454
▁alone	-10.4454
▁types	-10.4455
▁maintain	-10.4456
▁rear	-10.4457
▁heard	-10.4465
▁pin	-10.4465
xt	-10.4469
▁dressed	-10.4485
▁onto	-10.4487
ful	-10.4494
You	-10.4528
ted	-10.4528
▁agree	-10.4538
looking	-10.4544
▁hesitate	-10.4551
▁substantial	-10.4551
▁sense	-10.4551
▁Maidenform	-10.4552
▁adjustment	-10.4552
▁pattern	-10.4553
▁Extreme	-10.4568
▁formal	-10.4576
▁manufacturers	-10.4592
▁provided	-10.4594
▁spray	-10.4636
▁o	-10.4636
▁oil	-10.4645
▁remain	-10.4651
▁Better	-10.4651
▁keen	-10.4652
▁cleats	-10.466
▁Sperrys	-10.4661
▁ball	-10.4663
▁seeing	-10.4669
▁fixed	-10.4672
▁6'	-10.4688
▁choices	-10.4706
▁wallets	-10.4732
▁ideal	-10.474
▁Son	-10.4748
▁shipment	-10.4748
▁foam	-10.4749
▁Next	-10.4749
▁Disappointed	-10.4749
▁included	-10.4755
▁spots	-10.476
▁learned	-10.476
▁Ga	-10.4786
▁trust	-10.4837
▁behind	-10.4848
▁worse	-10.4848
▁reinforced	-10.485
▁initially	-10.4851
▁intended	-10.4853
▁Lots	-10.4858
▁boobs	-10.4886
Awesome	-10.4929
▁speak	-10.4936
nb	-10.4936
▁strange	-10.4937
▁AS	-10.4941
▁Day	-10.495
▁Hold	-10.4952
▁differently	-10.4964
▁shower	-10.4968
▁terms	-10.4993
▁environment	-10.5026
▁beating	-10.5033
▁serve	-10.5035
▁sad	-10.5045
▁silk	-10.5045
▁prior	-10.5051
▁window	-10.5051
▁assume	-10.5051
▁swimming	-10.5052
▁suede	-10.5052
▁2-3	-10.5053
▁followed	-10.5057
▁word	-10.5058
▁realized	-10.5074
▁l	-10.5123
▁Justin	-10.5128
▁Could	-10.5152
▁Jockey	-10.5154
▁Mexico	-10.5154
▁odor	-10.5154
▁cardboard	-10.5154
▁:	-10.5157
▁matches	-10.5159
▁Doesn	-10.5163
▁itchy	-10.5173
you	-10.5189
▁workout	-10.5199
▁flops	-10.5207
▁door	-10.5224
▁r	-10.5251
▁positive	-10.5258
▁digital	-10.5259
▁collection	-10.5259
▁elsewhere	-10.526
▁footbed	-10.5261
▁discovered	-10.5262
▁throughout	-10.5265
▁regret	-10.5265
▁Sturdy	-10.5266
▁bracelet	-10.5266
▁camping	-10.5268
▁tucked	-10.527
▁Needed	-10.528
man	-10.5281
▁Light	-10.5285
▁en	-10.5334
ch	-10.5335
▁models	-10.5336
No	-10.5347
▁edges	-10.5351
▁minimal	-10.5351
▁Second	-10.5357
▁junk	-10.5364
▁neutral	-10.5364
▁pressure	-10.5364
▁manner	-10.5364
▁jeweler	-10.537
▁surface	-10.5373
▁compartment	-10.5374
▁pop	-10.5375
▁reordered	-10.5382
00	-10.5393
▁photos	-10.5406
well	-10.5445
▁damage	-10.5458
▁moment	-10.547
▁feminine	-10.5471
▁funny	-10.5471
▁hopefully	-10.5473
▁somewhere	-10.5477
Having	-10.5478
▁reviewer	-10.5501
▁faster	-10.5505
ur	-10.5521
Like	-10.5545
▁jump	-10.5552
▁farm	-10.5555
▁serious	-10.5568
▁regularly	-10.5576
▁timex	-10.5577
▁bargain	-10.5578
▁laundry	-10.5578
▁cuff	-10.5579
▁sliding	-10.5582
▁ticking	-10.5583
▁occasion	-10.5589
▁result	-10.5589
▁visor	-10.5589
▁coin	-10.5591
▁returns	-10.5643
▁pale	-10.5659
▁mud	-10.5664
▁placed	-10.5673
▁$10	-10.5676
▁evening	-10.5677
▁WITH	-10.5686
▁fabulous	-10.5687
▁Over	-10.5687
▁BUY	-10.5687
▁zero	-10.5688
▁3-4	-10.5689
▁stem	-10.5689
▁Usually	-10.5689
▁apparently	-10.569
▁edge	-10.5699
▁layering	-10.5722
ment	-10.5724
▁starts	-10.5733
▁forgot	-10.5735
▁di	-10.5743
side	-10.5745
▁sleep	-10.5783
Best	-10.5785
▁shine	-10.579
▁rubbing	-10.5797
▁retro	-10.5798
▁duck	-10.58
▁May	-10.5801
▁ease	-10.5801
▁cutting	-10.5804
▁periods	-10.5808
▁snag	-10.5811
▁saved	-10.5818
▁requires	-10.5825
▁decades	-10.5849
WILL	-10.5856
▁harder	-10.5865
▁marks	-10.588
▁Who	-10.5883
▁threads	-10.5886
Swiss	-10.5886
▁NICE	-10.5907
▁accommodate	-10.5907
▁manufacturing	-10.5907
▁companies	-10.5907
▁authentic	-10.5907
▁male	-10.5907
▁city	-10.5908
▁hi	-10.5908
▁unisex	-10.5909
even	-10.5913
▁Mine	-10.5914
▁shaped	-10.5916
▁personally	-10.5917
▁dozen	-10.5923
▁waistline	-10.5923
too	-10.5925
▁thre	-10.5929
▁traveling	-10.5939
▁miss	-10.594
▁playing	-10.5946
▁exchanged	-10.5952
ri	-10.5994
▁breath	-10.5995
am	-10.5996
ra	-10.5997
▁parts	-10.6005
▁LIKE	-10.6018
Pants	-10.6018
▁gorgeous	-10.602
▁steel	-10.602
▁barefoot	-10.6023
▁errands	-10.6025
▁bed	-10.6025
▁Recommended	-10.6033
▁disappointment	-10.6033
▁favorites	-10.6036
▁key	-10.6039
▁Cons	-10.6041
▁Wranglers	-10.608
▁showed	-10.6086
▁eyes	-10.6088
weight	-10.6094
▁sore	-10.6095
▁el	-10.6109
Classic	-10.6113
▁display	-10.6122
▁generous	-10.6123
v	-10.6124
▁write	-10.6132
▁bonus	-10.6132
▁portion	-10.6133
▁till	-10.6134
▁extended	-10.6138
▁Couldn	-10.6138
▁Absolutely	-10.6141
▁picky	-10.6144
▁ware	-10.6147
▁combination	-10.6149
▁liner	-10.616
▁coveralls	-10.6164
▁ears	-10.6191
▁Stars	-10.6206
▁Anyway	-10.6248
▁helmet	-10.6248
▁wool	-10.6248
▁Leather	-10.6251
▁Hubby	-10.6254
▁zippers	-10.626
▁skirt	-10.6269
.00	-10.6323
▁....	-10.6341
Although	-10.6345
▁squeeze	-10.6352
▁ridiculous	-10.6355
▁wonder	-10.6358
▁fly	-10.6361
▁split	-10.6364
▁shallow	-10.6364
▁caught	-10.6365
▁Tough	-10.637
▁concern	-10.6373
▁hide	-10.6375
▁level	-10.6383
▁useless	-10.6413
6	-10.6417
▁leaves	-10.6449
▁Merrells	-10.6477
▁pregnant	-10.6482
▁bounce	-10.6483
▁ONE	-10.6483
▁grand	-10.6484
▁slipped	-10.6485
▁lint	-10.6486
!!!!!	-10.6488
▁thread	-10.6491
▁seriously	-10.6493
▁instep	-10.6497
▁Red	-10.6514
▁How	-10.6515
▁DO	-10.6526
▁offers	-10.6526
do	-10.654
36	-10.6562
<	-10.6574
▁46	-10.659
▁tighten	-10.6597
▁WEAR	-10.66
▁concrete	-10.6601
▁restaurant	-10.6601
▁moisture	-10.6601
▁biggest	-10.6601
▁charcoal	-10.6602
▁Lee	-10.6606
we	-10.6607
▁fourth	-10.6607
▁Warm	-10.661
▁knows	-10.6617
▁searching	-10.6617
▁AT	-10.6625
Looks	-10.6633
▁Band	-10.6647
▁m	-10.6671
▁cleaning	-10.6686
---	-10.6701
▁effect	-10.6721
▁example	-10.6722
▁Florida	-10.6722
▁rich	-10.6722
▁modern	-10.6722
▁THAT	-10.6722
▁profile	-10.6723
▁genuine	-10.6723
▁preferred	-10.6723
▁fading	-10.6723
▁thus	-10.6724
▁wings	-10.6725
▁From	-10.6725
▁occasionally	-10.6725
▁Bra	-10.6726
▁surprisingly	-10.6727
▁Normally	-10.6728
▁beware	-10.6731
▁sooner	-10.6741
▁bending	-10.6747
▁matching	-10.6778
▁wonderfully	-10.678
0	-10.6792
▁degrees	-10.6809
▁tools	-10.6809
▁brush	-10.682
that	-10.6838
▁awkward	-10.6843
▁attire	-10.6844
▁policy	-10.6844
▁therefore	-10.6844
▁Casio	-10.6844
▁Which	-10.6845
▁nurse	-10.6845
▁Sent	-10.6846
▁stitched	-10.6851
▁washable	-10.6864
%	-10.6904
wear	-10.692
▁holder	-10.6921
ation	-10.6937
will	-10.6943
style	-10.6956
▁gain	-10.6959
▁tees	-10.6961
▁grade	-10.6964
▁trails	-10.6967
▁worst	-10.6967
▁admit	-10.6967
▁needing	-10.6968
▁knowing	-10.6974
▁sweaty	-10.6987
▁alternative	-10.6991
▁garter	-10.6995
▁poorly	-10.6996
▁appeared	-10.6996
▁stone	-10.6998
ST	-10.7001
ta	-10.7019
order	-10.7022
......	-10.7022
▁sets	-10.7031
▁80	-10.7046
ter	-10.7067
▁shouldn	-10.7069
▁teen	-10.7071
large	-10.7075
▁dead	-10.7092
▁storage	-10.7092
▁specifically	-10.7093
▁cowboy	-10.7093
▁Right	-10.7095
▁factory	-10.7099
▁damaged	-10.7107
▁position	-10.7108
▁70	-10.7118
▁Their	-10.712
Shoes	-10.7121
te	-10.7123
▁Blue	-10.7127
▁downside	-10.7127
▁Moc	-10.7173
ier	-10.7198
▁mark	-10.7208
▁words	-10.7211
▁popular	-10.7218
▁access	-10.7218
▁activity	-10.7219
▁shame	-10.7219
▁tummy	-10.7219
▁undone	-10.7219
▁camo	-10.7219
▁prime	-10.7219
▁Sometimes	-10.7219
ER	-10.722
▁Wife	-10.7224
▁rarely	-10.7225
tops	-10.7246
▁game	-10.7249
▁drawer	-10.7251
nt	-10.7258
▁pleasant	-10.7266
Size	-10.7277
be	-10.7286
▁youth	-10.7295
▁J	-10.7295
29	-10.7301
Everyone	-10.7324
▁list	-10.7324
Cute	-10.7328
Had	-10.7328
▁)	-10.733
▁obvious	-10.7337
▁Please	-10.7339
▁BE	-10.7343
▁pins	-10.7346
▁HUGE	-10.7347
▁beyond	-10.7347
▁common	-10.7347
▁smart	-10.7347
▁risk	-10.7347
▁stable	-10.7347
▁cozy	-10.7348
▁rigid	-10.7348
▁delighted	-10.7348
▁Two	-10.7349
▁board	-10.7351
▁bike	-10.7352
▁grown	-10.7357
▁paint	-10.7361
▁Leg	-10.7373
▁glow	-10.7378
▁sound	-10.738
▁60	-10.7385
▁mile	-10.7399
se	-10.7409
▁ton	-10.7411
▁ha	-10.742
▁personal	-10.7424
▁ends	-10.744
▁pinch	-10.7442
back	-10.7452
▁print	-10.7468
▁extreme	-10.7468
▁confortable	-10.7477
▁rubbed	-10.7477
▁Perhaps	-10.7477
▁JUST	-10.7478
▁dust	-10.7479
▁Hush	-10.7479
▁flap	-10.7482
▁sorry	-10.7486
▁cushioned	-10.7498
ons	-10.75
▁f	-10.7506
ro	-10.7582
▁custom	-10.7588
▁dance	-10.7592
▁sons	-10.7596
▁semi	-10.7608
▁fleece	-10.7608
▁beginning	-10.7609
▁unique	-10.7609
▁BIG	-10.7609
▁Mom	-10.7609
▁SHOES	-10.761
▁climbing	-10.7613
▁Quick	-10.7615
▁self	-10.7618
▁5'	-10.7623
▁whenever	-10.7624
um	-10.7625
▁xl	-10.7628
▁painful	-10.7629
▁colder	-10.7645
▁lights	-10.7656
ist	-10.7671
▁co	-10.7678
▁lives	-10.7686
▁O	-10.7708
Exact	-10.7722
▁decide	-10.7729
▁dye	-10.7731
▁bulk	-10.7736
▁struggle	-10.7742
▁superior	-10.7742
▁further	-10.7742
▁sensitive	-10.7742
▁dream	-10.7743
▁PANTS	-10.7743
▁Wide	-10.7743
▁Tri	-10.7745
▁Cool	-10.7745
▁frequently	-10.7747
▁An	-10.7753
▁event	-10.777
▁gown	-10.7778
▁Khaki	-10.7781
▁degree	-10.7781
▁rubs	-10.783
▁scratch	-10.7846
uch	-10.7848
▁polish	-10.7851
Product	-10.7857
Husband	-10.7857
with	-10.786
▁EE	-10.7871
▁drive	-10.7872
▁KEEN	-10.7876
▁vary	-10.7877
▁college	-10.7877
▁LONG	-10.7877
▁vegan	-10.7878
▁BEST	-10.7879
▁discontinued	-10.7882
▁began	-10.7885
▁deeper	-10.7885
ul	-10.7886
gging	-10.7902
▁protected	-10.7904
▁tool	-10.7907
▁cycle	-10.7916
▁th	-10.7944
▁pads	-10.7956
▁Shippe	-10.7962
▁reach	-10.7992
▁discount	-10.8003
▁pouch	-10.8012
▁changing	-10.8014
▁numerous	-10.8014
▁story	-10.8014
▁Expedition	-10.8015
▁scratches	-10.8015
▁trips	-10.8016
▁teenage	-10.8017
▁trim	-10.8018
▁Fair	-10.8018
ordered	-10.8029
▁falls	-10.8037
▁daughters	-10.804
▁temps	-10.805
▁hikes	-10.8059
▁Her	-10.8083
▁90	-10.8091
▁sits	-10.8106
▁38""	-10.814
▁overly	-10.8141
▁confident	-10.8153
▁receiving	-10.8153
▁QUALITY	-10.8153
▁brick	-10.8153
▁specific	-10.8154
▁Comfort	-10.8154
▁Puppies	-10.8155
▁caus	-10.8155
▁limited	-10.8156
▁Gift	-10.8157
▁tailored	-10.8159
top	-10.8159
▁ski	-10.8164
▁stretches	-10.8166
▁los	-10.8166
▁excelente	-10.8168
▁image	-10.8195
▁Whisper	-10.8197
▁changes	-10.82
▁plann	-10.8205
▁matched	-10.8207
▁doesnt	-10.8209
fits	-10.8212
▁happens	-10.8232
xl	-10.8242
▁tears	-10.8244
me	-10.826
▁block	-10.8283
▁bar	-10.8284
▁taste	-10.8285
▁clutch	-10.8292
▁guide	-10.8293
▁checkbook	-10.8294
▁safety	-10.8294
▁liking	-10.8294
▁seven	-10.8294
▁clock	-10.8296
▁teenager	-10.8296
▁directly	-10.8297
▁Our	-10.8298
▁Pant	-10.8301
▁$30	-10.8303
▁reasons	-10.8305
▁missing	-10.831
There	-10.8313
▁Or	-10.8322
▁lo	-10.8349
▁hear	-10.8365
▁signs	-10.8366
▁pro	-10.8409
wide	-10.8415
Beautiful	-10.8417
▁catch	-10.8423
bought	-10.8431
▁Amazing	-10.8435
▁sunglasses	-10.8436
▁suspect	-10.8436
▁styling	-10.8436
▁torn	-10.8437
▁Take	-10.844
▁younger	-10.8443
▁4.5	-10.8444
He	-10.8444
▁LOVED	-10.8454
▁hoodies	-10.846
▁taller	-10.8473
▁mechanic	-10.8481
▁upset	-10.8485
▁openings	-10.8502
comfortable	-10.856
▁tip	-10.8567
▁sh	-10.857
▁wig	-10.8578
▁remind	-10.8578
▁exceptional	-10.858
▁crystal	-10.8581
▁comparison	-10.8581
▁clunky	-10.8581
▁information	-10.8581
▁dries	-10.8582
▁Kind	-10.8585
▁folks	-10.859
ive	-10.8593
▁oh	-10.8594
▁shoelaces	-10.8598
▁crack	-10.8607
co	-10.8611
▁suits	-10.8614
▁slips	-10.8618
▁spending	-10.8625
▁river	-10.8628
▁truck	-10.8629
la	-10.863
▁caused	-10.864
▁seconds	-10.8642
▁customers	-10.8646
▁vs	-10.866
▁strings	-10.8666
▁versions	-10.8667
li	-10.8676
▁switch	-10.8704
▁shrinking	-10.8705
▁improve	-10.8719
▁sleek	-10.8725
▁dinner	-10.8728
▁broom	-10.8728
▁cash	-10.8728
▁PRICE	-10.8729
▁REALLY	-10.8729
▁hesitant	-10.8731
▁possibly	-10.8731
▁factor	-10.8734
▁anticipated	-10.8736
dding	-10.8736
▁prove	-10.8743
▁create	-10.8768
▁question	-10.8779
▁pic	-10.8784
▁purchases	-10.8821
Converse	-10.8858
▁garden	-10.8862
▁stretching	-10.8867
▁deck	-10.8875
▁slender	-10.8878
▁reference	-10.8878
▁gentle	-10.8878
▁expansion	-10.8879
▁interior	-10.8879
▁plantar	-10.8879
▁TIME	-10.8879
▁lil	-10.888
▁suitable	-10.8881
▁Poor	-10.8883
▁oversized	-10.8888
▁sewing	-10.889
▁fail	-10.8906
▁gripe	-10.8913
▁Let	-10.8916
All	-10.8925
▁park	-10.893
ever	-10.8931
▁enjoyed	-10.8932
il	-10.8952
▁heart	-10.8953
▁Liked	-10.8953
what	-10.8962
▁17	-10.8976
▁state	-10.8979
▁=	-10.8987
▁supports	-10.9001
▁hadn	-10.9005
lo	-10.9008
Arrived	-10.9009
quality	-10.9009
▁worker	-10.9012
▁advise	-10.9017
▁attempt	-10.9018
▁prompt	-10.902
▁bare	-10.9028
▁driving	-10.9029
▁outstanding	-10.9029
▁answer	-10.9029
▁vibrant	-10.9029
▁defective	-10.9029
▁pricing	-10.903
▁spandex	-10.903
▁Luckily	-10.903
▁Back	-10.9034
ased	-10.9034
▁Strap	-10.9038
▁crap	-10.9062
id	-10.9079
▁terrain	-10.9082
▁cincher	-10.9085
▁wrangler	-10.9086
▁Your	-10.9087
▁stiffer	-10.909
light	-10.9094
▁Boots	-10.9106
ry	-10.9128
free	-10.9163
▁badly	-10.917
▁keens	-10.9179
▁SMALL	-10.9183
▁halloween	-10.9183
▁whatsoever	-10.9183
▁synthetic	-10.9183
▁investment	-10.9183
▁Might	-10.9183
▁living	-10.9184
▁ONLY	-10.9184
▁olive	-10.9184
▁Almost	-10.9185
▁bueno	-10.9185
▁wrap	-10.9185
▁fashionable	-10.9188
▁Newports	-10.9188
ach	-10.9193
▁Dr	-10.9194
▁knit	-10.9203
▁mold	-10.9204
▁consistently	-10.9208
▁complained	-10.9209
▁costs	-10.9209
▁Haven	-10.9214
▁attach	-10.9218
▁carefully	-10.9219
▁considered	-10.9221
▁k	-10.9227
▁Are	-10.9235
▁Re	-10.9241
▁brief	-10.9243
▁compliment	-10.9243
▁nails	-10.9247
▁tent	-10.9253
pleasantly	-10.9265
▁trade	-10.9267
os	-10.9278
▁Low	-10.9284
et	-10.9298
▁mis	-10.9306
▁noted	-10.9306
ty	-10.9309
Quality	-10.932
▁telling	-10.9324
lenty	-10.9339
▁screen	-10.9339
▁system	-10.9339
▁MUCH	-10.9339
▁cream	-10.934
▁Jazz	-10.934
▁food	-10.9341
▁Jacket	-10.9342
▁White	-10.9342
▁Old	-10.9343
▁Actually	-10.9345
▁Fantastic	-10.9348
▁stiffness	-10.9349
▁scratched	-10.9353
▁posted	-10.9359
sized	-10.9366
▁selling	-10.9367
▁staple	-10.9397
▁regard	-10.9398
▁dollar	-10.9402
▁notch	-10.9411
▁link	-10.9432
▁stands	-10.9441
ally	-10.946
ound	-10.9461
▁producto	-10.9469
▁sew	-10.9476
V	-10.9477
▁weak	-10.9478
▁fasten	-10.948
▁yesterday	-10.9498
▁clown	-10.9498
▁withstand	-10.9498
▁joke	-10.9498
▁wiggle	-10.9498
▁warranty	-10.9499
▁acceptable	-10.9499
▁Belt	-10.9501
▁LOL	-10.9502
▁pregnancy	-10.9502
▁Many	-10.9503
▁Sadly	-10.9504
▁UPDATE	-10.9506
▁binding	-10.951
she	-10.9525
▁allowed	-10.9536
▁fold	-10.9539
where	-10.9545
▁Won	-10.9555
long	-10.9562
▁hurting	-10.957
▁zippered	-10.9591
▁Star	-10.9591
▁8.	-10.9623
▁research	-10.9635
▁Deliver	-10.9656
▁leaving	-10.9659
▁physical	-10.9659
▁sloppy	-10.9659
▁sterling	-10.9659
▁series	-10.9659
▁labor	-10.9659
▁comparable	-10.966
▁neither	-10.966
▁tail	-10.9666
▁dockers	-10.9666
▁manufactured	-10.9667
▁lucky	-10.9673
▁~	-10.9673
?)	-10.9676
▁gotta	-10.9677
▁capris	-10.969
▁complaining	-10.9691
Shirt	-10.9706
▁tied	-10.9709
▁clips	-10.9711
▁turns	-10.9721
▁load	-10.9723
▁tank	-10.9724
▁sperry	-10.9726
▁snaps	-10.9728
▁coats	-10.9729
In	-10.9737
na	-10.9738
▁fingers	-10.9746
▁Want	-10.9752
its	-10.9757
ried	-10.9766
▁thermal	-10.9773
▁hey	-10.9783
same	-10.9808
▁blow	-10.981
▁depend	-10.981
ning	-10.981
▁America	-10.9817
▁snugly	-10.9819
▁Thick	-10.9822
▁compression	-10.9823
▁preference	-10.9824
▁LOOK	-10.9824
▁square	-10.9825
▁somehow	-10.9825
ee	-10.9827
▁indicated	-10.9829
▁Solid	-10.9831
▁Delivery	-10.9831
▁email	-10.9846
▁ability	-10.9852
Siders	-10.9853
▁bills	-10.987
▁charm	-10.9877
??	-10.9887
▁burn	-10.9888
▁road	-10.9888
▁amazingly	-10.9891
▁defect	-10.9893
▁string	-10.99
▁pad	-10.9906
mo	-10.9916
▁Here	-10.9936
▁becomes	-10.9942
wise	-10.9947
fitting	-10.9972
rank	-10.9974
▁honest	-10.9974
▁nerv	-10.9978
▁ex	-10.9982
Those	-10.9983
▁calves	-10.999
▁indeed	-10.999
▁vest	-10.9991
▁dependable	-10.9991
▁Berkshire	-10.9992
▁Silver	-10.9992
▁vintage	-10.9992
▁Grandson	-10.9993
▁grew	-10.9996
▁6'2""	-10.9997
▁UP	-11.0001
▁superb	-11.0004
▁nose	-11.001
ept	-11.0013
▁detail	-11.0038
▁Carhartts	-11.0042
▁mocs	-11.0042
▁shift	-11.0048
▁tearing	-11.0049
▁effort	-11.0058
▁track	-11.0058
▁distance	-11.0062
▁Timberland	-11.0063
▁watchband	-11.0069
▁V	-11.0073
▁Pros	-11.0084
ent	-11.0102
Large	-11.0106
DDD	-11.0145
▁loud	-11.0146
▁constant	-11.015
▁bind	-11.0154
▁win	-11.0154
▁PRODUCT	-11.0156
▁stack	-11.0159
▁stress	-11.0159
▁Especially	-11.0159
▁Vanderbilt	-11.0159
▁arrival	-11.0159
▁terribly	-11.0159
▁KEDS	-11.0159
▁Hawaii	-11.0159
▁skeptical	-11.0159
▁basis	-11.0159
▁error	-11.0159
▁transaction	-11.016
▁retired	-11.0163
▁failed	-11.0172
▁gardening	-11.0174
▁gained	-11.0174
▁uppers	-11.0177
▁served	-11.018
▁sells	-11.0212
▁Try	-11.022
end	-11.0231
▁Jean	-11.0236
way	-11.024
▁cons	-11.0263
▁Note	-11.0269
▁Hi	-11.0269
▁tells	-11.0294
▁drag	-11.0301
▁48	-11.0302
One	-11.0315
coming	-11.0316
▁camp	-11.0317
▁develop	-11.0321
▁clasps	-11.0328
▁Europe	-11.0331
▁panel	-11.0332
▁besides	-11.0332
▁fear	-11.0332
▁Give	-11.0333
▁loving	-11.0334
▁1-2	-11.0334
▁Again	-11.0335
▁wires	-11.0336
▁Brown	-11.0337
▁kill	-11.0338
▁dressier	-11.0338
▁significantly	-11.0339
▁floors	-11.0345
▁kit	-11.0347
▁missed	-11.0349
ern	-11.0353
▁rated	-11.0358
don	-11.0386
▁kick	-11.0388
▁driver	-11.0411
▁asking	-11.0411
▁pointed	-11.0422
▁180	-11.043
▁yo	-11.0445
Seem	-11.0489
▁draw	-11.049
yr	-11.0493
EE	-11.0503
▁PAIR	-11.0504
▁HE	-11.0505
▁eight	-11.0506
]	-11.0507
▁approx	-11.0507
▁confusing	-11.0507
▁removing	-11.0507
▁COMFORTABLE	-11.0507
▁afford	-11.0507
▁Stay	-11.0507
▁grocery	-11.0507
▁amazed	-11.0508
▁multi	-11.0508
▁Granddaughter	-11.0509
▁buena	-11.051
▁prices	-11.0514
de	-11.0523
▁wondering	-11.0527
▁0	-11.0533
▁becoming	-11.0544
▁packed	-11.0546
▁buyer	-11.0547
▁packing	-11.0553
▁wrinkled	-11.056
ate	-11.0578
▁$50	-11.0583
▁levis	-11.0589
▁;)	-11.0602
▁fire	-11.062
bout	-11.0622
▁garters	-11.0645
▁Tight	-11.0647
▁dogs	-11.0652
J	-11.0662
▁coins	-11.0666
LOVE	-11.0666
▁include	-11.0673
▁ME	-11.0675
▁calidad	-11.0686
▁lounging	-11.0686
▁slimmer	-11.0686
▁winner	-11.0686
▁Guess	-11.0687
▁Father	-11.0687
▁bc	-11.0688
▁chilly	-11.069
▁softener	-11.0697
▁info	-11.0697
▁ridiculously	-11.0701
▁directions	-11.0716
▁hell	-11.0725
▁glued	-11.073
▁orthotics	-11.0755
▁matters	-11.0756
▁Ran	-11.0758
▁standards	-11.0763
▁poncho	-11.0766
▁finger	-11.0771
▁pen	-11.0771
▁grab	-11.0801
▁hopes	-11.0808
omewhat	-11.0818
▁gap	-11.0826
▁Pro	-11.0835
▁expand	-11.0843
▁squeak	-11.0843
▁launder	-11.0843
Way	-11.0849
around	-11.0849
▁classics	-11.0861
▁recomend	-11.0861
▁slick	-11.0864
▁license	-11.0868
▁NEVER	-11.0868
▁snagged	-11.0868
▁HAD	-11.0868
▁desk	-11.0868
▁Fine	-11.0868
▁Gloria	-11.0868
▁Support	-11.0868
▁lead	-11.087
▁flex	-11.0871
▁6'1""	-11.0875
▁talking	-11.0877
▁LOT	-11.0877
▁incredible	-11.088
ant	-11.0895
▁died	-11.0896
ir	-11.0897
▁tons	-11.0904
tall	-11.0905
▁rolling	-11.0912
▁Merrill	-11.0919
▁eat	-11.0928
▁follow	-11.0928
▁shell	-11.093
▁sign	-11.0935
▁Looking	-11.094
▁sub	-11.0941
▁scuff	-11.0944
▁v	-11.0949
▁moved	-11.0951
▁pool	-11.096
▁grease	-11.0961
▁$15	-11.0969
▁45	-11.0977
▁shades	-11.0977
▁loss	-11.0987
after	-11.1019
ian	-11.1023
can	-11.1023
Always	-11.1033
black	-11.1033
Run	-11.1034
have	-11.1039
▁balance	-11.104
▁breaks	-11.1041
▁golf	-11.1042
▁effective	-11.1044
▁quit	-11.1051
▁WORK	-11.1052
▁hospital	-11.1053
▁dropped	-11.1053
▁garage	-11.1054
▁mouth	-11.1054
▁GET	-11.1054
▁Lightweight	-11.1059
▁swear	-11.106
▁heck	-11.106
▁tricky	-11.1068
im	-11.1107
▁Plan	-11.111
▁kinds	-11.1117
▁Am	-11.1129
▁polo	-11.114
▁causes	-11.1148
of	-11.1185
ble	-11.1194
dress	-11.1204
use	-11.1214
▁relax	-11.1217
▁ma	-11.122
▁1.5	-11.1232
▁GO	-11.1233
▁Silk	-11.1236
▁carries	-11.1241
▁harsh	-11.1241
▁public	-11.1241
▁squatting	-11.1242
efore	-11.1242
▁gel	-11.1242
▁freezing	-11.1242
▁desired	-11.1243
▁maternity	-11.1244
▁conform	-11.125
▁Come	-11.1258
▁rainy	-11.127
.......	-11.1282
▁temperatures	-11.1291
▁Pockets	-11.1294
▁trays	-11.1328
▁gifts	-11.133
▁street	-11.1335
▁suggestion	-11.1339
▁Short	-11.134
▁points	-11.135
over	-11.1355
▁sweaters	-11.1355
▁$40	-11.1363
▁waisted	-11.1368
▁ill	-11.137
Its	-11.1371
▁newer	-11.1391
Was	-11.1396
inch	-11.1403
▁$100	-11.1408
▁ruin	-11.141
lb	-11.1412
▁200	-11.1414
▁damn	-11.1422
▁account	-11.1434
▁elderly	-11.1434
▁recipient	-11.1434
▁absorb	-11.1434
▁carried	-11.1435
▁EVER	-11.1435
▁glass	-11.1435
▁Front	-11.1436
▁hidden	-11.1436
▁kayaking	-11.1437
▁heavyweight	-11.1441
▁managed	-11.1444
▁Lo	-11.1445
▁wasted	-11.1447
▁training	-11.1448
▁oppos	-11.1452
▁fo	-11.1454
spite	-11.1471
▁staying	-11.1471
oo	-11.1488
▁states	-11.1488
▁dis	-11.149
▁difficulty	-11.1496
▁Out	-11.1505
▁charge	-11.1511
ated	-11.1524
▁Danner	-11.1529
▁code	-11.153
▁headache	-11.1531
▁situation	-11.1533
▁bump	-11.1533
▁que	-11.1538
▁details	-11.1545
▁Mens	-11.1555
▁lb	-11.1576
▁magic	-11.1587
▁bleach	-11.1597
▁buyers	-11.1598
ne	-11.1606
▁slow	-11.1617
▁describe	-11.1617
▁fiance	-11.1628
▁latch	-11.1629
▁ALWAYS	-11.163
▁confidence	-11.163
▁fasciitis	-11.163
▁longevity	-11.163
▁solution	-11.163
▁strength	-11.163
▁uncomfortably	-11.163
▁computer	-11.163
▁warehouse	-11.163
▁performance	-11.163
▁accidentally	-11.163
▁Rothco	-11.163
▁secret	-11.1631
▁mortar	-11.1631
▁calf	-11.1631
ng	-11.1632
▁hardware	-11.1632
▁Style	-11.1633
▁hug	-11.1633
▁lifetime	-11.1633
▁5'8""	-11.1634
▁insulated	-11.1634
▁5'7""	-11.1634
▁End	-11.1634
▁rid	-11.1635
▁5'10""	-11.1636
▁6'3""	-11.1637
▁19	-11.1645
▁land	-11.1649
▁listing	-11.165
▁26	-11.1658
▁Kids	-11.1662
▁rounded	-11.167
▁rolled	-11.167
▁finished	-11.167
ling	-11.1688
Can	-11.1694
▁install	-11.1714
▁bone	-11.1724
▁decade	-11.1733
▁stoo	-11.1736
▁ear	-11.1739
▁kicks	-11.174
▁Boot	-11.1746
▁Us	-11.1773
small	-11.1807
Pretty	-11.181
maybe	-11.181
▁patch	-11.1817
▁select	-11.1818
▁trash	-11.1819
▁intend	-11.1824
tic	-11.1828
▁Amanda	-11.183
▁Balance	-11.183
▁contrast	-11.183
▁internet	-11.183
▁South	-11.183
▁compact	-11.183
▁LARGE	-11.183
▁WHAT	-11.183
▁craftsmanship	-11.183
▁nine	-11.183
▁exclusively	-11.1831
▁EXCELLENT	-11.1831
▁opaque	-11.1833
▁Simple	-11.1836
▁Okay	-11.184
▁woods	-11.184
▁pendants	-11.1845
▁Bad	-11.1847
▁opt	-11.1847
▁shot	-11.1848
28	-11.1848
▁Pleased	-11.1849
yes	-11.1859
ey	-11.1861
ip	-11.1871
▁production	-11.1872
▁slides	-11.1882
▁flop	-11.1883
ge	-11.1884
▁cuts	-11.1892
ad	-11.1907
▁CAN	-11.1922
▁report	-11.1924
▁measures	-11.1925
▁rides	-11.1926
Work	-11.1932
▁BDU	-11.1933
▁smallest	-11.1934
▁pill	-11.1941
ating	-11.1958
▁rare	-11.2024
▁fish	-11.203
▁excess	-11.2034
▁overseas	-11.2034
▁twenty	-11.2034
▁explain	-11.2034
▁security	-11.2034
▁removable	-11.2034
▁nature	-11.2034
▁noticeably	-11.2034
▁cinch	-11.2034
▁EVERY	-11.2034
▁crisp	-11.2035
▁YEARS	-11.2035
▁Either	-11.2035
▁SUPER	-11.2035
Loved	-11.2038
▁cloths	-11.204
▁5'4""	-11.204
▁camera	-11.2042
▁Excelente	-11.2043
▁Decent	-11.2046
▁busted	-11.2058
▁web	-11.2067
▁carhart	-11.2081
▁Sandals	-11.2083
▁building	-11.2087
▁smells	-11.209
▁bent	-11.2097
▁shrinks	-11.21
▁creases	-11.2102
▁remembered	-11.2103
▁bunions	-11.2104
▁hits	-11.2129
ice	-11.2143
▁goodness	-11.2153
US	-11.2161
sh	-11.2187
▁Disney	-11.2206
break	-11.2209
white	-11.2223
loose	-11.2223
▁Wen	-11.2227
Men	-11.2227
▁challenge	-11.2229
▁adequate	-11.2232
▁Typical	-11.2238
urtle	-11.224
▁peel	-11.224
▁Honduras	-11.2242
▁industry	-11.2242
▁HIGH	-11.2242
▁giant	-11.2242
▁primarily	-11.2242
▁crown	-11.2242
▁alright	-11.2242
▁bang	-11.2242
▁Wrong	-11.2243
▁combo	-11.2243
▁Spanx	-11.2243
▁exchanging	-11.2243
▁prepared	-11.2244
▁robe	-11.2245
▁page	-11.2245
▁UPS	-11.2246
▁Alive	-11.2246
▁click	-11.2246
▁power	-11.2247
▁noise	-11.2247
▁[	-11.2248
▁Returning	-11.2252
ability	-11.2252
▁OUT	-11.2257
▁following	-11.2257
▁analog	-11.226
pe	-11.2264
LE	-11.2265
▁sleeping	-11.2267
▁sticks	-11.2273
▁stronger	-11.2283
▁2.5	-11.2285
▁St	-11.2292
▁purposes	-11.2296
▁screws	-11.2303
▁accurately	-11.2309
▁pulls	-11.2343
To	-11.2348
▁par	-11.2353
▁shorten	-11.2354
▁levi	-11.2358
▁tray	-11.236
color	-11.2424
▁sat	-11.2426
▁snags	-11.2428
Fast	-11.2435
ag	-11.2439
▁visit	-11.2444
▁absolute	-11.2447
▁taupe	-11.2455
▁LifeStride	-11.2455
▁cruise	-11.2455
▁alarm	-11.2455
▁grass	-11.2455
▁glance	-11.2456
▁basketball	-11.2456
:)	-11.2456
▁misleading	-11.2456
▁Winter	-11.2456
▁Mother	-11.2456
▁kitchen	-11.2456
▁Totally	-11.2458
cute	-11.2459
▁Sleeve	-11.246
▁western	-11.2461
▁Strong	-11.2461
▁5'11""	-11.2462
▁sporty	-11.2469
11	-11.247
▁switched	-11.2471
▁cracked	-11.2471
▁$5	-11.2479
31	-11.2483
▁inconsistent	-11.2484
▁517'	-11.2505
▁taylors	-11.2509
▁sticking	-11.2517
▁1""	-11.2525
▁suck	-11.2527
▁checking	-11.2529
▁DD	-11.2536
▁mountains	-11.2538
▁experienced	-11.2556
▁claim	-11.2564
j	-11.2569
▁flaw	-11.2574
rs	-11.2575
▁Needles	-11.2617
▁Cut	-11.2618
star	-11.2631
▁9.	-11.2633
▁mix	-11.265
Finally	-11.2653
▁unusual	-11.2663
ping	-11.2669
▁SHOE	-11.2669
▁patterns	-11.267
▁humid	-11.2672
▁Up	-11.2672
▁Texas	-11.2672
▁dancing	-11.2672
▁frustrating	-11.2672
▁circulation	-11.2672
▁stupid	-11.2672
▁Vietnam	-11.2672
▁WELL	-11.2672
▁sweet	-11.2672
▁silicone	-11.2673
▁gut	-11.2673
▁statement	-11.2673
▁knife	-11.2673
▁handsome	-11.2674
▁desert	-11.2674
▁requested	-11.2682
Vanity	-11.2682
▁organized	-11.2684
▁printed	-11.2691
▁jobs	-11.2691
▁brighter	-11.2693
▁Shirts	-11.2696
▁Quit	-11.27
ance	-11.2703
▁replacements	-11.2712
▁importantly	-11.2713
▁die	-11.2715
son	-11.2748
▁continues	-11.2761
Look	-11.2765
▁adjusting	-11.2765
▁smelled	-11.2779
▁train	-11.2782
▁WW	-11.2783
▁prefers	-11.2788
▁drawback	-11.2793
▁closely	-11.2803
▁term	-11.2804
▁retailer	-11.2807
▁rips	-11.2816
▁toward	-11.2819
more	-11.2828
wash	-11.286
▁#	-11.286
excellent	-11.2875
brand	-11.2877
Ok	-11.2878
▁significant	-11.2888
▁seal	-11.289
▁Seller	-11.2895
▁laptop	-11.2895
▁undies	-11.2895
▁garbage	-11.2895
▁stability	-11.2895
▁lean	-11.2895
▁Bahama	-11.2895
▁UK	-11.2896
▁indigo	-11.2896
▁527	-11.2896
▁Obviously	-11.2897
▁interested	-11.2897
▁equally	-11.2901
▁fight	-11.2903
▁poly	-11.2905
▁ruined	-11.2907
▁complements	-11.2922
▁chores	-11.2926
▁separated	-11.2927
▁Save	-11.2937
▁lets	-11.2938
▁supported	-11.294
▁weekends	-11.2941
▁God	-11.2963
tone	-11.2975
CH	-11.299
per	-11.2995
▁situations	-11.3006
see	-11.3018
▁tab	-11.3026
▁tube	-11.3028
▁member	-11.3034
ia	-11.3036
▁recommendation	-11.3039
▁anyways	-11.304
▁chains	-11.3044
▁uniforms	-11.3066
▁cord	-11.3068
ary	-11.3076
▁tightly	-11.3084
waist	-11.3091
was	-11.3101
Overall	-11.3102
▁darn	-11.3111
▁moderate	-11.3113
▁Bottom	-11.3122
▁convenience	-11.3122
▁familiar	-11.3122
▁measuring	-11.3122
▁utility	-11.3122
▁benefit	-11.3122
▁EXACT	-11.3122
▁consistency	-11.3122
▁carpenter	-11.3122
▁worries	-11.3122
▁broad	-11.3122
▁fragile	-11.3122
▁resistance	-11.3122
▁scarf	-11.3122
~	-11.3122
▁sturdier	-11.3122
▁Satisfied	-11.3123
▁Summer	-11.3123
▁fur	-11.3123
▁stitches	-11.3123
▁adore	-11.3123
▁infant	-11.3123
▁regardless	-11.3124
▁6'5""	-11.3126
▁5'3""	-11.3127
box	-11.3128
▁Loose	-11.3128
▁impact	-11.3128
▁6'4""	-11.3133
▁folded	-11.3137
▁rocky	-11.314
▁ST	-11.3141
▁anytime	-11.3142
▁improved	-11.3143
!).	-11.3149
▁filled	-11.3151
▁Fur	-11.3156
▁entirely	-11.3168
▁footed	-11.3173
▁st	-11.3174
▁wished	-11.3178
ring	-11.3181
▁teach	-11.3191
▁outlet	-11.3195
▁toss	-11.3202
▁hurts	-11.321
▁se	-11.3222
▁attract	-11.3222
▁perform	-11.323
▁nail	-11.3271
▁alittle	-11.3284
▁ver	-11.329
▁wearer	-11.3296
▁guessing	-11.3296
date	-11.3306
▁rolls	-11.3308
▁8,	-11.3319
RE	-11.3327
▁hangs	-11.3331
▁treat	-11.3334
from	-11.3335
▁accident	-11.3338
▁events	-11.334
▁frequent	-11.3346
▁husbands	-11.3348
▁permanent	-11.3349
▁favor	-11.3354
▁jungle	-11.3354
▁snugger	-11.3354
▁Alaska	-11.3354
▁AMAZON	-11.3355
▁California	-11.3355
▁weave	-11.3355
▁Seriously	-11.3355
▁biking	-11.3356
▁iPhone	-11.3356
▁Grand	-11.3356
▁recieved	-11.3356
▁guard	-11.3357
▁Cost	-11.3358
▁speedy	-11.3359
▁among	-11.336
▁5'2""	-11.3361
▁swelling	-11.3364
▁shocked	-11.3364
▁advised	-11.3374
cut	-11.3378
▁thinks	-11.3385
▁mainly	-11.3387
▁turning	-11.3399
▁pushed	-11.34
▁ironed	-11.3414
band	-11.3415
▁pure	-11.3418
losing	-11.3419
thanks	-11.3421
25	-11.3422
▁ample	-11.3443
other	-11.3452
▁deliver	-11.3478
iness	-11.3482
▁task	-11.3493
▁Wal	-11.3507
▁flaps	-11.3529
▁paints	-11.3537
▁hated	-11.3541
get	-11.3542
▁force	-11.3543
▁winters	-11.3557
▁results	-11.3567
heavy	-11.3573
give	-11.3574
▁resist	-11.358
▁surprising	-11.3583
▁timeless	-11.3589
▁collect	-11.3591
▁Life	-11.3592
▁Fortunately	-11.3592
▁babies	-11.3592
▁vinyl	-11.3592
▁Reflections	-11.3592
▁reputation	-11.3592
▁damp	-11.3593
▁maintenance	-11.3593
▁Thin	-11.3593
▁supplier	-11.3593
▁Buzz	-11.3593
hi	-11.3593
▁Slip	-11.3595
▁shelf	-11.3595
▁source	-11.3595
▁muffin	-11.3595
▁Army	-11.3597
▁neckline	-11.3597
▁exposed	-11.3597
20	-11.3602
ca	-11.3604
▁wick	-11.3606
▁Read	-11.3606
▁Wow	-11.3609
▁planned	-11.3612
▁salt	-11.3613
▁designs	-11.3613
▁Any	-11.3621
▁sneaks	-11.3622
▁pressed	-11.3623
▁dislike	-11.3627
▁9,	-11.3629
▁securely	-11.3632
▁colours	-11.3642
▁enjoys	-11.3647
▁37	-11.3659
look	-11.3697
▁Car	-11.3704
only	-11.3705
read	-11.3712
▁stink	-11.3716
tight	-11.3721
▁dressing	-11.3725
10	-11.3737
ho	-11.3749
ick	-11.376
▁costumes	-11.376
▁buttoned	-11.3761
▁tshirt	-11.3769
▁hung	-11.377
▁originals	-11.3783
▁row	-11.3793
▁backpack	-11.3806
▁4""	-11.3808
▁slot	-11.381
▁pa	-11.3811
new	-11.3811
▁stitch	-11.3812
▁twist	-11.3812
especially	-11.3813
▁tailor	-11.3814
Wonderful	-11.3817
casual	-11.3817
▁extend	-11.3822
▁manage	-11.3822
▁suffer	-11.3825
▁talk	-11.3827
▁Excelent	-11.3832
▁WATCH	-11.3836
▁HAPPY	-11.3836
▁wrote	-11.3836
▁response	-11.3836
▁background	-11.3836
▁insulation	-11.3836
▁equivalent	-11.3837
▁necessarily	-11.3837
▁rope	-11.3837
▁unsure	-11.3837
▁Cotton	-11.3837
▁silly	-11.3837
▁wow	-11.3837
▁teacher	-11.384
▁Rugged	-11.3843
▁leak	-11.3851
▁developed	-11.3852
▁searched	-11.3865
▁Put	-11.3871
▁tested	-11.3872
▁repaired	-11.3883
▁Sneakers	-11.3886
"")	-11.3886
▁rings	-11.3888
▁handles	-11.3919
▁!!!!	-11.3929
▁mo	-11.3933
Works	-11.3934
▁longest	-11.3936
ig	-11.3941
▁smoothly	-11.3944
▁sales	-11.3953
.5	-11.3962
ma	-11.3967
Shoe	-11.397
▁150	-11.3976
▁sea	-11.3984
▁mm	-11.3985
▁mountain	-11.3989
▁orthotic	-11.3989
ILL	-11.399
there	-11.3992
▁sites	-11.3996
▁reviewed	-11.4002
000	-11.4008
bo	-11.4016
50	-11.4017
▁closures	-11.4028
▁2)	-11.4036
▁visors	-11.406
▁lock	-11.4062
Since	-11.4067
when	-11.4067
ine	-11.4069
Yes	-11.4071
about	-11.4072
▁request	-11.4075
▁sag	-11.4076
washed	-11.4077
▁survive	-11.4077
▁IF	-11.4077
▁uneven	-11.408
▁apply	-11.4081
▁BOUGHT	-11.4086
▁Friday	-11.4086
▁Haiti	-11.4086
▁MORE	-11.4086
▁flannel	-11.4086
▁inferior	-11.4086
▁virtual	-11.4086
▁Reef	-11.4086
▁WERE	-11.4086
▁decision	-11.4087
▁irritating	-11.4087
▁WOULD	-11.4088
▁toasty	-11.4088
▁usage	-11.4089
▁industrial	-11.4089
▁yeah	-11.409
▁Costume	-11.4091
▁flashy	-11.4091
▁5'9""	-11.4091
▁Relaxed	-11.4092
▁Sorry	-11.4093
▁soaked	-11.4093
▁warned	-11.4094
▁Adorable	-11.4094
▁steal	-11.4094
▁Vans	-11.4095
▁cape	-11.4098
▁undershirt	-11.4099
▁pinching	-11.4111
▁Topsiders	-11.4118
▁parents	-11.412
▁subtle	-11.4121
▁accordingly	-11.4123
▁lately	-11.4132
▁appreciated	-11.4135
▁vers	-11.4138
▁hooked	-11.4142
▁labels	-11.4168
-2	-11.4172
stern	-11.4184
OK	-11.419
▁160	-11.4205
▁soooo	-11.4208
Thank	-11.4225
▁retain	-11.4232
▁improvement	-11.4242
▁du	-11.4242
???	-11.4248
▁runner	-11.4254
▁boob	-11.426
ac	-11.4292
On	-11.4297
bed	-11.4297
▁pe	-11.4308
most	-11.4315
pants	-11.4315
▁ways	-11.4317
Came	-11.4323
GREAT	-11.4323
▁willing	-11.4323
keep	-11.4323
▁hunt	-11.4324
Soft	-11.4324
▁sorts	-11.4326
aking	-11.4336
▁balls	-11.4337
▁remains	-11.4338
▁stops	-11.434
▁190	-11.4341
▁supple	-11.4343
▁ultra	-11.4343
▁Additionally	-11.4343
▁OTHER	-11.4343
▁caution	-11.4343
▁duffle	-11.4343
▁lingerie	-11.4343
▁neoprene	-11.4343
▁opposite	-11.4343
▁batteries	-11.4343
▁accessory	-11.4343
▁scent	-11.4343
▁repeated	-11.4343
▁Instead	-11.4344
▁chafing	-11.4344
▁muscular	-11.4344
▁175	-11.4344
▁Consider	-11.4345
▁funky	-11.4345
▁Must	-11.4345
▁Sure	-11.4346
▁Full	-11.4347
▁interesting	-11.4347
▁Extra	-11.4347
▁Green	-11.4347
▁icy	-11.4349
▁raw	-11.435
▁injury	-11.4359
▁scuffed	-11.4359
▁130	-11.4366
▁purses	-11.4366
▁trusted	-11.4371
▁breathing	-11.4373
▁via	-11.4376
▁largest	-11.4397
red	-11.4402
ug	-11.441
▁Du	-11.4434
▁ties	-11.4436
let	-11.4438
ex	-11.4441
▁covering	-11.4447
▁Wouldn	-11.4449
▁$	-11.4459
▁170	-11.4462
▁swim	-11.4463
30.	-11.4475
▁moves	-11.448
thank	-11.4489
▁sperrys	-11.4498
▁knot	-11.4498
▁seasons	-11.4499
▁climate	-11.4508
▁organizer	-11.451
▁fastener	-11.4512
+++	-11.4519
though	-11.4522
▁bear	-11.4522
▁sooo	-11.4543
ay	-11.455
▁Ra	-11.4561
imately	-11.4581
Heavy	-11.4586
▁shock	-11.4597
nough	-11.4603
▁THANK	-11.4605
▁Kipling	-11.4606
▁Reasonabl	-11.4606
▁swollen	-11.4606
▁Target	-11.4606
▁apparel	-11.4606
Flower	-11.4606
▁treatment	-11.4606
▁considerably	-11.4607
▁Stabilicers	-11.4607
▁Victoria	-11.4607
▁neon	-11.4607
▁title	-11.4607
▁bullet	-11.4607
▁ensure	-11.4608
▁Gildan	-11.4609
▁July	-11.4609
▁consideration	-11.4609
ap	-11.4609
▁tech	-11.461
▁ripping	-11.4611
▁2016	-11.4611
▁timepiece	-11.4618
▁claimed	-11.4619
-4	-11.462
va	-11.4624
▁farmer	-11.4626
▁sadly	-11.4633
▁created	-11.4635
▁indoors	-11.4636
▁highest	-11.4641
▁tightness	-11.4642
ical	-11.4643
ial	-11.4655
ea	-11.4658
land	-11.4662
▁oddly	-11.4663
big	-11.4665
▁gun	-11.467
▁meaning	-11.4686
▁Ordering	-11.4686
ably	-11.4697
▁breaker	-11.4697
▁Co	-11.4737
AL	-11.474
▁tick	-11.4742
▁mild	-11.4754
▁designer	-11.4757
▁airport	-11.4778
▁Sport	-11.478
king	-11.4784
hour	-11.4793
▁fee	-11.4795
tan	-11.4797
▁ft	-11.4806
▁140	-11.4813
▁brace	-11.4815
▁surely	-11.4833
▁nights	-11.4843
Z	-11.4846
▁view	-11.485
▁ages	-11.4851
Waist	-11.4857
Durable	-11.4857
ley	-11.4857
▁sp	-11.4859
01	-11.4861
also	-11.4861
▁bleed	-11.4863
▁destroy	-11.4865
▁repeat	-11.4865
▁reduce	-11.4867
▁Real	-11.4872
▁Water	-11.4876
▁Enell	-11.4876
▁Spirit	-11.4876
▁death	-11.4876
▁herself	-11.4876
▁definately	-11.4876
▁hanes	-11.4876
▁bummed	-11.4876
://	-11.4876
▁south	-11.4876
▁writing	-11.4876
▁sagging	-11.4876
▁feedback	-11.4876
▁unwearable	-11.4876
▁tackle	-11.4877
▁fifth	-11.4877
▁headpiece	-11.4877
▁muddy	-11.4877
▁Thankfully	-11.4877
▁AWESOME	-11.4878
▁Apparently	-11.4879
▁cuz	-11.4879
▁team	-11.4881
▁fallen	-11.4885
▁frayed	-11.4886
▁ANY	-11.4886
▁3.5	-11.4886
▁engineer	-11.4887
▁5'6""	-11.4887
▁XS	-11.4888
▁gal	-11.4888
ush	-11.4889
▁slowly	-11.489
▁mixed	-11.489
▁selected	-11.4891
ha	-11.4892
▁teaching	-11.4893
▁anybody	-11.4902
▁polishing	-11.4902
▁passed	-11.491
▁cone	-11.4917
▁projects	-11.4961
▁Con	-11.4961
▁lite	-11.4973
▁sweating	-11.4977
▁es	-11.4989
▁chill	-11.505
▁doctor	-11.5052
▁le	-11.5054
▁magnet	-11.5055
▁aspect	-11.5056
ery	-11.5057
▁bow	-11.5058
▁cycles	-11.5072
ld	-11.5074
men	-11.509
▁rec	-11.5093
▁slid	-11.5109
ep	-11.5115
right	-11.5121
Order	-11.5124
High	-11.5124
▁Return	-11.513
some	-11.5133
Mart	-11.5133
▁40""	-11.5133
Women	-11.5133
amazon	-11.5134
Sturdy	-11.5134
Received	-11.5134
Comfy	-11.5134
Color	-11.5134
cotton	-11.5134
▁discover	-11.5144
Only	-11.5145
▁COLOR	-11.5151
▁adjustments	-11.5153
▁THAN	-11.5154
▁hammer	-11.5154
▁Secret	-11.5154
▁competitive	-11.5154
▁cosplay	-11.5154
▁diameter	-11.5154
▁providing	-11.5154
▁lunch	-11.5154
▁drawstring	-11.5154
▁relief	-11.5154
▁Mimosa	-11.5154
▁Xmas	-11.5154
▁auto	-11.5154
▁diabetic	-11.5154
▁FRO	-11.5154
▁World	-11.5155
▁chunky	-11.5155
At	-11.5155
▁granny	-11.5155
▁written	-11.5155
▁gravel	-11.5155
▁wound	-11.5155
▁Say	-11.5156
▁overnight	-11.5156
▁hence	-11.5156
▁wrapped	-11.5158
▁Dark	-11.5158
▁Unless	-11.5162
▁501	-11.5162
▁5'5""	-11.5162
really	-11.5164
▁mini	-11.5165
▁FITS	-11.5165
▁Fel	-11.5167
▁cheapest	-11.5175
▁skiing	-11.518
got	-11.5186
▁flats	-11.5188
ure	-11.52
▁casually	-11.5219
▁Walk	-11.5222
▁forth	-11.5232
▁pumps	-11.5244
ner	-11.5245
▁bf	-11.5246
▁Bag	-11.5246
▁Cant	-11.5255
ga	-11.5256
set	-11.5264
▁sleeved	-11.5272
ab	-11.5277
easy	-11.5279
▁si	-11.5283
▁lifts	-11.5285
▁prop	-11.5292
▁tshirts	-11.5292
▁def	-11.5312
▁widths	-11.532
▁ho	-11.5324
▁cleaned	-11.5326
▁manufacture	-11.5327
▁unit	-11.5337
▁Champion	-11.534
▁saving	-11.5341
▁250	-11.5342
▁bunion	-11.5343
▁squat	-11.5351
▁wipe	-11.5361
▁lake	-11.5362
ingly	-11.5369
▁bulge	-11.5377
lol	-11.5381
▁(2	-11.5387
ud	-11.5388
Original	-11.542
Cheap	-11.542
Sperry	-11.542
Easy	-11.542
Returned	-11.542
because	-11.5423
▁offering	-11.5424
▁environments	-11.5424
▁sufficient	-11.543
▁apparent	-11.543
▁RECOMMEND	-11.5439
▁diamond	-11.544
▁quilt	-11.544
▁separating	-11.544
▁supply	-11.544
▁maroon	-11.544
▁burgundy	-11.544
▁article	-11.544
▁indestructible	-11.544
▁4-5	-11.544
▁HOWEVER	-11.544
▁SHE	-11.544
▁stepping	-11.544
▁Billfish	-11.5441
▁baggier	-11.5441
▁Arch	-11.5441
▁Turn	-11.5442
▁scale	-11.5442
▁12.5	-11.5442
▁Fall	-11.5443
▁football	-11.5444
▁NOW	-11.5444
▁trendy	-11.5444
▁Outstanding	-11.5445
▁stainless	-11.5446
▁dull	-11.5447
▁120	-11.5447
▁overpriced	-11.5448
▁haha	-11.5454
▁shortened	-11.5455
▁jet	-11.5457
▁sewed	-11.546
▁sight	-11.5465
▁Sole	-11.5473
▁---	-11.5474
AS	-11.5484
▁wa	-11.5488
▁curves	-11.5493
▁loosened	-11.5495
mething	-11.5506
shoes	-11.5507
▁makers	-11.5518
▁165	-11.5548
high	-11.5549
▁5-	-11.5554
real	-11.5567
▁pens	-11.5595
▁speed	-11.5596
Wor	-11.5599
33	-11.5605
nyone	-11.561
had	-11.5624
hard	-11.5626
▁questions	-11.563
▁holiday	-11.5635
▁pound	-11.5638
▁warning	-11.5645
til	-11.5648
▁(5	-11.5652
▁underwires	-11.5655
▁(1	-11.5667
▁AB	-11.5674
Tall	-11.5679
support	-11.57
proof	-11.571
leather	-11.5713
women	-11.5714
Wow	-11.5714
▁workouts	-11.5714
through	-11.5715
Absolutely	-11.5715
Made	-11.5715
▁fav	-11.5715
relaxed	-11.5715
▁advertise	-11.5721
▁structure	-11.5723
▁initial	-11.5724
▁Seiko	-11.5734
▁beauty	-11.5734
▁lazy	-11.5734
▁bathroom	-11.5734
▁Freesole	-11.5734
▁motion	-11.5734
▁satisfactory	-11.5734
▁advantage	-11.5734
▁prone	-11.5734
▁Customer	-11.5735
▁European	-11.5735
▁contractor	-11.5735
▁WIDE	-11.5735
▁Woodlore	-11.5735
▁MADE	-11.5735
▁Stride	-11.5735
▁Stiff	-11.5735
▁DAY	-11.5735
▁Besides	-11.5736
▁Natori	-11.5737
▁Basically	-11.5737
▁share	-11.5738
▁None	-11.5741
▁estimated	-11.5743
▁Regular	-11.5745
▁Waste	-11.575
▁vari	-11.5754
▁j	-11.5755
▁workers	-11.5756
▁dimensions	-11.576
▁1)	-11.5769
▁minimalist	-11.5775
▁$25	-11.5775
▁Me	-11.5779
▁aside	-11.578
▁bu	-11.5782
der	-11.5786
▁veins	-11.5791
▁loosely	-11.5799
▁>	-11.5809
Be	-11.5811
▁squats	-11.5835
tion	-11.5839
▁retailers	-11.5867
$	-11.5875
▁ID	-11.5903
▁stuffed	-11.5907
▁6""	-11.5914
?!	-11.5923
▁god	-11.5925
distressed	-11.5925
▁pump	-11.5926
▁animal	-11.5934
▁bottle	-11.5937
▁Di	-11.5945
▁expectation	-11.5947
Use	-11.5949
▁gr	-11.5972
water	-11.598
IT	-11.5992
5""	-11.5995
fast	-11.5997
▁excelent	-11.6004
▁determine	-11.6005
OUT	-11.6012
▁produce	-11.6014
neck	-11.6017
duty	-11.6017
regular	-11.6017
barely	-11.6017
slip	-11.6021
lite	-11.6028
▁flash	-11.6031
▁success	-11.6036
▁reflect	-11.6036
▁Danskin	-11.6037
▁School	-11.6037
▁Skimp	-11.6037
▁Tamiami	-11.6037
▁exterior	-11.6037
▁saucony	-11.6037
▁smidge	-11.6037
▁Check	-11.6037
▁chocolate	-11.6037
▁equipment	-11.6037
▁unhappy	-11.6037
▁driveway	-11.6037
▁freedom	-11.6038
▁AGAIN	-11.6038
▁popped	-11.6038
▁2013	-11.6038
▁curvy	-11.6038
▁Swatch	-11.6038
▁Chinese	-11.6038
▁shopped	-11.6039
▁handling	-11.6039
▁spread	-11.604
▁instantly	-11.604
▁Yeah	-11.604
▁mount	-11.6041
▁Stylish	-11.6041
▁FYI	-11.6041
▁tapered	-11.6043
▁presentable	-11.6044
▁listened	-11.6044
▁numerals	-11.6047
▁destroyed	-11.6049
▁garments	-11.605
▁survived	-11.6056
▁blowing	-11.606
▁buckles	-11.6061
ci	-11.6061
▁chinos	-11.6064
▁Duck	-11.6068
▁commented	-11.6074
▁greatest	-11.6076
Chucks	-11.6082
ks	-11.6084
▁boxes	-11.6085
▁colorful	-11.6091
▁charts	-11.6095
▁grows	-11.6106
▁refunded	-11.6109
........	-11.611
▁locations	-11.6111
▁28""	-11.6113
▁moc	-11.6119
▁fashioned	-11.6125
▁(34	-11.6126
▁220	-11.6142
Q	-11.6153
▁friendly	-11.6161
▁Add	-11.6166
▁boating	-11.6167
▁Tee	-11.6179
▁pr	-11.619
▁Ma	-11.6192
run	-11.6196
Sider	-11.6232
▁reg	-11.6232
▁helping	-11.6236
!!!!!!	-11.624
▁necklaces	-11.6248
▁fence	-11.6248
▁movie	-11.6251
▁horse	-11.6251
▁project	-11.6252
▁trouser	-11.6253
▁pearl	-11.6254
▁chemical	-11.6254
▁bo	-11.6269
▁sounds	-11.6272
▁pit	-11.6273
▁drawers	-11.6274
cu	-11.6279
▁flow	-11.6288
ase	-11.6293
▁Perfectly	-11.63
▁eliminate	-11.6308
14	-11.6309
▁fray	-11.6325
cheap	-11.6326
priced	-11.6327
▁exist	-11.6338
▁swell	-11.634
▁manual	-11.6341
▁strip	-11.6343
▁matte	-11.6347
▁witch	-11.6349
▁ORDER	-11.6349
▁Guatemala	-11.6349
▁breeze	-11.6349
▁christmas	-11.6349
▁convince	-11.6349
▁rafting	-11.6349
▁tiempo	-11.6349
▁windbreaker	-11.6349
▁Therefore	-11.6349
▁champ	-11.6349
▁medical	-11.635
▁yoga	-11.635
▁lacing	-11.635
▁tries	-11.635
▁crew	-11.635
▁Press	-11.635
▁JEANS	-11.635
▁knob	-11.635
▁postage	-11.635
▁Enjoy	-11.6352
▁Double	-11.6353
▁confused	-11.6354
▁busy	-11.6355
▁tarnished	-11.636
Don	-11.6364
▁kicking	-11.6373
▁act	-11.6376
▁elements	-11.6379
▁27	-11.6382
ible	-11.6389
▁(3	-11.6389
▁34'	-11.639
▁Complete	-11.6391
▁pressing	-11.6393
▁windy	-11.6394
▁shut	-11.6398
▁tint	-11.6402
▁heads	-11.6407
▁naturally	-11.6413
▁nipples	-11.6432
▁worrying	-11.6444
little	-11.6456
▁solve	-11.6459
▁rib	-11.6469
▁tabs	-11.6486
still	-11.6487
30,	-11.6496
▁backup	-11.6515
▁lie	-11.6516
Shirts	-11.652
ky	-11.6534
▁calls	-11.6554
shoe	-11.6555
ka	-11.6558
lasting	-11.6561
▁climb	-11.6561
▁essential	-11.6562
▁hats	-11.6566
ward	-11.6568
▁slack	-11.6576
▁dickie	-11.6576
▁plumber	-11.6577
▁minimize	-11.6598
15	-11.66
/30	-11.6605
▁por	-11.6607
ize	-11.6614
▁cat	-11.6618
rew	-11.662
▁cleaner	-11.6627
ue	-11.6629
Even	-11.6652
almost	-11.6653
true	-11.6657
down	-11.6659
▁respect	-11.6659
▁anticipate	-11.6661
▁raise	-11.6665
▁buen	-11.6665
▁ol	-11.6668
▁LITTLE	-11.6672
▁Nordstrom	-11.6672
▁exercising	-11.6672
▁chubby	-11.6672
▁cousin	-11.6672
▁merchandise	-11.6672
▁Control	-11.6672
▁walmart	-11.6672
▁roof	-11.6672
▁owner	-11.6672
▁blood	-11.6672
▁intact	-11.6672
▁luckily	-11.6672
▁calendar	-11.6672
everal	-11.6673
▁factories	-11.6673
▁unlined	-11.6673
▁embroidered	-11.6674
▁Service	-11.6674
▁nasty	-11.6674
▁Standard	-11.6674
▁wild	-11.6674
▁popping	-11.6674
▁patches	-11.6674
▁IZOD	-11.6674
▁BTW	-11.6674
▁impressive	-11.6674
▁Find	-11.6675
▁ORDERED	-11.6675
▁Three	-11.6676
▁ranch	-11.6676
▁welding	-11.6676
▁Zipper	-11.6677
▁minus	-11.6678
▁elasticity	-11.6678
▁Already	-11.6678
▁125	-11.6685
▁usable	-11.6686
▁performed	-11.6688
▁Allen	-11.6689
▁Bean	-11.6692
▁charged	-11.6693
▁messy	-11.6696
▁polished	-11.6698
▁Overalls	-11.67
▁outlast	-11.6705
▁Ca	-11.6712
▁Replac	-11.6712
www	-11.6712
▁DDD	-11.672
▁hrs	-11.6721
▁PURCHASE	-11.6724
lly	-11.6726
▁<	-11.6726
▁Swiss	-11.6731
▁lacking	-11.6731
▁sc	-11.6733
▁lighting	-11.6743
34.	-11.6755
▁31""	-11.6755
▁Slight	-11.6767
cc	-11.6769
▁Hop	-11.6774
looks	-11.6784
body	-11.6785
▁fir	-11.6793
under	-11.6803
EN	-11.6811
▁claims	-11.682
▁Ariats	-11.6832
▁suggestions	-11.6839
▁bus	-11.6844
▁keeper	-11.6847
ny	-11.6861
▁distances	-11.6862
con	-11.6864
▁21	-11.6882
▁mi	-11.689
▁irritate	-11.6891
▁screw	-11.6901
ving	-11.6903
▁corset	-11.6905
▁impression	-11.6905
▁flight	-11.6906
▁slipper	-11.6907
▁muscle	-11.6907
▁corner	-11.6908
yrs	-11.692
-1	-11.6923
rise	-11.6932
▁22	-11.6946
▁Iron	-11.6963
▁wi	-11.6976
hand	-11.6978
▁tarnish	-11.6981
Fantastic	-11.6985
Unfortunately	-11.6986
always	-11.6986
Nothing	-11.6986
type	-11.6986
Timex	-11.6986
although	-11.6987
gu	-11.6992
▁Think	-11.6993
▁rinse	-11.6993
▁5'11	-11.6994
▁affect	-11.6994
▁equal	-11.6996
Wear	-11.6996
▁3/4	-11.6997
▁occasional	-11.6998
rt	-11.7005
▁loyal	-11.7005
▁December	-11.7005
▁English	-11.7005
▁countries	-11.7005
▁mechanism	-11.7005
▁record	-11.7005
▁pleasure	-11.7005
▁sandpaper	-11.7005
▁RIGHT	-11.7005
▁category	-11.7006
▁People	-11.7007
▁Narrow	-11.7007
▁thoroughly	-11.7007
▁baseball	-11.7008
▁Clean	-11.7008
▁http	-11.7009
▁turtle	-11.7009
▁Five	-11.7009
▁slit	-11.701
▁hill	-11.7011
▁everybody	-11.7011
▁Beware	-11.7014
▁roomier	-11.7014
▁210	-11.7017
▁north	-11.7022
▁OR	-11.7026
▁backlight	-11.703
▁debat	-11.7033
▁strain	-11.7039
▁quicker	-11.7049
▁pebbles	-11.7052
▁tougher	-11.7064
▁surprises	-11.7077
fer	-11.7079
▁softened	-11.7085
ron	-11.7095
ff	-11.7099
▁thumbs	-11.7101
▁ba	-11.7113
▁alter	-11.7114
▁soul	-11.712
▁delivers	-11.7145
low	-11.7154
▁flaws	-11.7158
▁sucks	-11.7158
▁upgrade	-11.7176
wards	-11.7192
▁thermals	-11.7209
▁art	-11.7219
▁Y	-11.7229
▁cu	-11.7229
▁mans	-11.7239
▁poke	-11.7242
▁rust	-11.7245
▁choos	-11.7246
▁blouse	-11.7251
▁lightly	-11.7252
▁thumb	-11.7252
▁increase	-11.7257
▁Pocket	-11.7258
op	-11.727
"""	-11.729
32.	-11.7303
▁rave	-11.7324
pa	-11.7328
Decent	-11.733
Levi	-11.733
Update	-11.733
different	-11.733
resistant	-11.7334
Needed	-11.7334
▁6'4	-11.7338
▁convert	-11.7339
▁refuse	-11.7343
▁trend	-11.7344
▁TWO	-11.735
▁butterfly	-11.735
▁counterfeit	-11.735
▁ocean	-11.735
▁powder	-11.735
▁Adidas	-11.735
▁:-(	-11.735
▁fluke	-11.735
▁memory	-11.735
▁straw	-11.735
▁pleated	-11.735
▁toddlers	-11.735
▁HUSBAND	-11.735
▁expedition	-11.735
▁cook	-11.7351
▁depth	-11.7351
▁ivory	-11.7351
▁Spring	-11.7351
▁rotate	-11.7351
▁North	-11.7351
▁varies	-11.7352
▁Third	-11.7352
▁shoveling	-11.7352
▁Know	-11.7353
▁snapped	-11.7353
▁4-6	-11.7354
▁Today	-11.7354
▁Canvas	-11.7355
▁cushy	-11.7355
▁Authentic	-11.7355
▁incorrect	-11.7356
▁Terrible	-11.7356
ck	-11.7357
▁39	-11.7358
ugh	-11.7359
jeans	-11.7361
▁closest	-11.7363
▁Man	-11.7366
▁11.	-11.737
▁softness	-11.7376
▁frills	-11.7377
▁overweight	-11.7377
0%	-11.7377
▁whereas	-11.7385
▁appropriately	-11.7386
stars	-11.7397
▁afterwards	-11.7401
▁freak	-11.7404
▁$8	-11.7405
▁prevents	-11.7407
▁wall	-11.7409
▁stained	-11.7412
-30	-11.7413
OR	-11.7419
▁29""	-11.742
▁anti	-11.7423
▁PA	-11.7424
ver	-11.7426
▁towel	-11.7428
aid	-11.7429
▁snowy	-11.7431
▁smelly	-11.7443
br	-11.7444
▁gra	-11.7449
▁user	-11.7466
IN	-11.7467
ail	-11.7472
▁(36	-11.7477
by	-11.7477
▁freely	-11.748
#	-11.749
ah	-11.7492
▁functions	-11.75
ub	-11.7508
▁bends	-11.754
▁La	-11.7556
▁defects	-11.7557
▁mornings	-11.7567
hose	-11.7572
▁2014	-11.7576
0+	-11.7582
***	-11.7586
▁tips	-11.7587
▁com	-11.7588
▁hop	-11.7591
lot	-11.7598
ory	-11.7606
▁.....	-11.7609
gs	-11.7611
▁coverall	-11.7615
oh	-11.7627
ES	-11.7641
32,	-11.7643
VE	-11.7644
▁tug	-11.7648
▁wee	-11.7657
▁sweats	-11.7664
▁warn	-11.767
▁chin	-11.7674
boob	-11.7687
NOT	-11.7687
▁direct	-11.7687
Amazing	-11.7687
medium	-11.7688
ok	-11.7692
▁invest	-11.7697
▁rash	-11.7706
▁Indigo	-11.7707
▁Monday	-11.7707
▁horribly	-11.7707
▁human	-11.7707
▁playground	-11.7707
▁MUST	-11.7707
▁quiet	-11.7707
▁EXPECTED	-11.7707
▁luggage	-11.7707
▁easiest	-11.7707
▁wanna	-11.7708
▁buff	-11.7708
assuming	-11.7708
▁Regardless	-11.7708
▁Lollipop	-11.7708
▁goofy	-11.7708
▁billfold	-11.7708
▁Problem	-11.7709
▁embarrassing	-11.7709
▁individual	-11.7709
▁functionality	-11.7709
▁TIMEX	-11.771
▁bank	-11.7711
▁Boat	-11.7712
▁185	-11.7712
▁differ	-11.7714
▁(8	-11.7714
▁@	-11.7715
▁stinky	-11.7716
▁reality	-11.7717
▁camper	-11.7717
▁flare	-11.7718
▁summertime	-11.772
▁solved	-11.7721
▁Ked	-11.7722
▁topsiders	-11.7726
▁reduced	-11.7726
▁Compare	-11.7729
87	-11.7731
▁pilling	-11.7734
▁loaded	-11.7742
▁eyelets	-11.7745
teen	-11.7751
▁sheen	-11.7753
ect	-11.7757
loved	-11.7764
▁triple	-11.7767
▁hiked	-11.7771
▁;	-11.7771
▁cutest	-11.7773
▁workwear	-11.7779
▁arthritis	-11.7789
▁belong	-11.779
are	-11.7797
▁temp	-11.7798
▁ache	-11.7825
Thanks	-11.7826
▁2015	-11.7828
▁chested	-11.7829
▁AM	-11.7834
yo	-11.7845
▁33""	-11.7855
▁lengths	-11.7872
▁bones	-11.7886
▁complains	-11.789
ut	-11.7899
uff	-11.7904
▁Toe	-11.7927
urn	-11.7929
▁Th	-11.7935
18	-11.7958
ned	-11.7961
▁Lovely	-11.7966
▁Macy	-11.7976
▁character	-11.7978
▁timberland	-11.7979
▁nipple	-11.798
▁temperature	-11.7981
▁Docker	-11.7982
▁stones	-11.7995
▁sticker	-11.8002
▁***	-11.802
ious	-11.8024
▁fades	-11.8025
▁sometime	-11.8026
vi	-11.8027
ide	-11.8039
▁2012	-11.8044
would	-11.8045
Still	-11.8058
Everything	-11.8058
True	-11.8058
store	-11.8058
etc	-11.8058
bra	-11.8063
ock	-11.8064
▁schedule	-11.8065
walking	-11.8067
▁excessive	-11.8068
▁tire	-11.807
▁flatter	-11.807
▁5'10	-11.8072
▁fianc	-11.8074
Item	-11.8076
▁Rica	-11.8078
▁accessories	-11.8078
▁cleavage	-11.8078
▁deciding	-11.8078
▁group	-11.8078
▁yarn	-11.8078
▁downhill	-11.8078
▁Elance	-11.8078
▁poking	-11.8078
▁precise	-11.8078
▁snake	-11.8078
▁bedroom	-11.8078
▁prefect	-11.8078
▁DID	-11.8079
▁crooked	-11.8079
▁minimum	-11.8079
▁pavement	-11.8079
▁massive	-11.8079
▁protective	-11.8079
▁handbag	-11.8079
▁mechanical	-11.8079
▁2011	-11.808
▁related	-11.808
▁hint	-11.808
▁bubble	-11.808
▁breastfeeding	-11.8081
▁Reader	-11.8082
▁Roomy	-11.8084
▁Brand	-11.8084
▁pastel	-11.8087
▁CONS	-11.8089
▁Silky	-11.8092
highs	-11.8092
▁oz	-11.8094
▁GOT	-11.8096
▁tossed	-11.8098
▁compar	-11.811
▁FIR	-11.8111
▁scratching	-11.8114
▁army	-11.8115
used	-11.8123
▁Cup	-11.8132
▁sections	-11.8136
▁sellers	-11.8139
car	-11.8146
▁inseams	-11.8155
▁stripes	-11.8156
▁release	-11.8161
lu	-11.8166
ton	-11.817
ke	-11.8183
▁8.5,	-11.8187
ball	-11.819
▁grips	-11.8214
▁grabb	-11.8218
▁bum	-11.8237
▁carhartts	-11.8242
▁recommendations	-11.8244
▁continued	-11.8252
▁steps	-11.8267
▁scuffs	-11.8278
▁po	-11.8287
▁9.5.	-11.8291
ze	-11.8314
▁cow	-11.8322
-1/2	-11.8323
▁Le	-11.833
▁3""	-11.8336
ec	-11.8337
▁$11	-11.834
▁$7	-11.8344
▁logos	-11.8346
uck	-11.8356
▁rack	-11.8362
▁fatigue	-11.8363
▁taylor	-11.8365
▁video	-11.8369
▁Bib	-11.8369
ify	-11.8371
▁sheet	-11.8381
.99	-11.8385
);	-11.8409
▁tile	-11.841
▁SE	-11.8415
?""	-11.8426
▁regrets	-11.8434
▁bracelets	-11.8434
dark	-11.8439
q	-11.844
Black	-11.8442
Watch	-11.8442
UPDATE	-11.8442
nude	-11.8442
Most	-11.8443
length	-11.8443
Okay	-11.8443
Would	-11.8443
But	-11.8443
Make	-11.8443
Buy	-11.8444
Wish	-11.8449
▁advance	-11.845
▁address	-11.8451
▁6'3	-11.8452
▁32,	-11.8455
▁modest	-11.8457
▁mode	-11.8458
▁Under	-11.8458
ified	-11.8459
▁demi	-11.8461
▁Four	-11.8461
Un	-11.8462
▁enormous	-11.8462
▁himself	-11.8462
▁opportunity	-11.8462
▁pliable	-11.8462
▁rabbit	-11.8462
▁Loom	-11.8462
▁ventilation	-11.8462
▁tension	-11.8462
▁exposure	-11.8462
▁simplicity	-11.8462
▁failure	-11.8462
▁HARD	-11.8462
▁Cohesion	-11.8463
▁Colorado	-11.8463
▁posture	-11.8463
▁Chillax	-11.8463
▁empty	-11.8463
▁licking	-11.8463
▁tissue	-11.8463
▁LOOKING	-11.8463
▁Sears	-11.8463
▁alternate	-11.8464
▁Cargo	-11.8464
▁Smooth	-11.8464
▁quarter	-11.8464
▁bold	-11.8465
▁HAS	-11.8465
▁dragging	-11.8465
▁Edmonds	-11.8465
▁spanx	-11.8465
▁cares	-11.8466
▁Underwire	-11.8466
▁wristband	-11.8466
▁nonsense	-11.8469
▁Horrible	-11.847
▁exceeded	-11.847
▁manager	-11.847
que	-11.8471
thin	-11.8472
▁Expected	-11.8473
boots	-11.8473
▁lawn	-11.8474
▁REAL	-11.8474
▁essentially	-11.8476
▁raised	-11.8481
▁applied	-11.8485
▁sidewalks	-11.8487
▁Tan	-11.8489
▁treating	-11.8489
▁blast	-11.8499
▁readable	-11.8507
▁sticky	-11.8518
▁contract	-11.8525
▁tendon	-11.8526
take	-11.8541
ized	-11.8552
▁corners	-11.8577
dom	-11.858
▁ribs	-11.8582
▁chemicals	-11.8585
5%	-11.8599
13	-11.8603
▁Ha	-11.8606
▁converses	-11.8612
▁Ba	-11.8616
▁li	-11.8616
▁Pa	-11.862
1/2	-11.8633
▁Sauconys	-11.8637
somewhat	-11.8639
▁app	-11.8639
rain	-11.8643
▁endure	-11.8648
▁Colors	-11.8652
Shippe	-11.866
ood	-11.8661
▁Were	-11.8681
▁AA	-11.8685
▁rep	-11.8688
gen	-11.8703
▁pics	-11.8722
bit	-11.8724
ite	-11.8734
EEN	-11.8747
▁beer	-11.8751
rk	-11.8762
▁receipt	-11.8763
▁device	-11.8763
▁buck	-11.8763
▁camisole	-11.8763
▁content	-11.8764
▁location	-11.8765
▁games	-11.8766
vid	-11.8769
▁Sandal	-11.877
▁lid	-11.8773
▁teens	-11.8774
soft	-11.8802
ile	-11.8823
stretch	-11.8825
pair	-11.884
close	-11.8842
Quick	-11.8842
Hubby	-11.8843
Definitely	-11.8843
Small	-11.8843
mp	-11.8844
▁outgrow	-11.8846
his	-11.8849
need	-11.8851
▁final	-11.8853
▁fuzz	-11.8856
USE	-11.8857
▁lens	-11.8861
▁occur	-11.8862
`	-11.8862
▁Birthday	-11.8862
▁EXTREME	-11.8862
▁silhouette	-11.8862
▁strict	-11.8862
▁transparent	-11.8862
▁untucked	-11.8862
▁diaper	-11.8862
▁platform	-11.8862
▁recomiendo	-11.8862
▁Value	-11.8862
▁carpet	-11.8862
▁coral	-11.8862
▁boning	-11.8862
▁saddle	-11.8863
▁kidding	-11.8863
▁slimming	-11.8863
▁spur	-11.8863
▁January	-11.8863
▁invisible	-11.8863
▁medal	-11.8863
▁SAME	-11.8863
▁March	-11.8863
▁xmas	-11.8863
colored	-11.8863
▁cure	-11.8863
▁queen	-11.8864
▁GV	-11.8864
▁magnetic	-11.8864
▁Wrinkle	-11.8864
▁dainty	-11.8864
▁float	-11.8865
▁YOUR	-11.8865
▁legit	-11.8865
▁crushed	-11.8866
▁Less	-11.8866
▁brushes	-11.8867
▁Honestly	-11.8867
▁craft	-11.8867
▁$$	-11.8867
▁cage	-11.8867
▁id	-11.8868
▁Olive	-11.8868
▁Pink	-11.8868
▁wax	-11.8868
▁Inseam	-11.8868
▁50%	-11.887
▁sailing	-11.8871
▁Vibram	-11.8872
▁Yet	-11.8873
▁partial	-11.8874
▁settled	-11.8876
inal	-11.8878
▁Thinking	-11.8878
uring	-11.8879
worn	-11.888
▁reported	-11.8884
ib	-11.8885
▁lowest	-11.8885
ba	-11.8885
▁workplace	-11.8886
▁former	-11.8887
▁transition	-11.889
▁fastened	-11.889
▁LL	-11.8896
▁cars	-11.8897
▁brushed	-11.8899
▁plant	-11.89
▁displayed	-11.8902
▁maker	-11.8903
▁separately	-11.8908
▁barn	-11.8909
bi	-11.8928
ence	-11.8934
bag	-11.8936
▁knockoffs	-11.8937
▁indicates	-11.8938
▁health	-11.8945
▁bothered	-11.8947
▁norm	-11.8948
▁tightest	-11.8952
▁hooded	-11.8958
mon	-11.8968
▁1/2""	-11.8974
▁spaces	-11.8975
▁muscles	-11.8982
▁perfection	-11.8994
▁lit	-11.8998
▁5""	-11.9003
pro	-11.9006
▁cases	-11.9007
▁laced	-11.9022
▁selections	-11.9027
▁itch	-11.9052
llowing	-11.9054
▁spec	-11.9057
▁pi	-11.907
▁skip	-11.909
38	-11.9095
▁stat	-11.9104
des	-11.911
▁al	-11.9112
sole	-11.9115
▁goo	-11.9116
▁war	-11.9124
▁$9	-11.9137
▁DON	-11.9138
short	-11.9158
▁Sad	-11.916
16	-11.9168
▁11,	-11.9174
▁Bare	-11.9179
▁earring	-11.9183
▁pet	-11.9186
▁angle	-11.9187
▁flower	-11.9196
▁cart	-11.9203
▁issued	-11.9206
▁refer	-11.9226
did	-11.9227
place	-11.9232
sleeve	-11.9247
17	-11.9254
▁Lace	-11.9257
feet	-11.9258
Solid	-11.9259
Warm	-11.9259
Material	-11.9259
except	-11.9259
winter	-11.9259
super	-11.9259
▁creat	-11.9267
▁fool	-11.9268
▁potential	-11.9269
▁stretcher	-11.9269
▁thankful	-11.9273
▁chic	-11.9274
▁Dress	-11.9276
▁pear	-11.9279
▁HOW	-11.9279
▁August	-11.9279
▁FAR	-11.9279
▁FEEL	-11.9279
▁Fruit	-11.9279
▁Hamilton	-11.9279
▁Michigan	-11.9279
▁Sebago	-11.9279
▁WHEN	-11.9279
▁bouncing	-11.9279
▁detergent	-11.9279
▁lounge	-11.9279
▁pencil	-11.9279
▁tugging	-11.9279
▁whisper	-11.9279
▁afternoon	-11.9279
▁confusion	-11.9279
▁robust	-11.9279
▁understated	-11.9279
▁steep	-11.9279
▁generic	-11.9279
▁grateful	-11.9279
▁thirty	-11.9279
▁Chicago	-11.9279
▁drier	-11.9279
lbeit	-11.9279
▁valet	-11.9279
▁$80	-11.9279
▁trial	-11.9279
▁passport	-11.9279
▁closing	-11.928
▁dissapointed	-11.928
▁coarse	-11.928
▁April	-11.928
▁happily	-11.928
▁Decide	-11.928
▁Brice	-11.928
▁fond	-11.9281
▁SHIRTS	-11.9281
▁drape	-11.9281
▁LAST	-11.9282
▁505	-11.9282
▁leisure	-11.9282
▁partner	-11.9282
▁patient	-11.9283
▁xxl	-11.9283
▁65%	-11.9283
▁Send	-11.9284
▁Terrific	-11.9284
▁Pair	-11.9284
▁6'6""	-11.9284
▁Edit	-11.9284
▁vision	-11.9285
▁earth	-11.9285
▁clingy	-11.9285
▁Remember	-11.9286
▁placement	-11.9287
▁owns	-11.9287
▁thankfully	-11.9289
▁soak	-11.9291
ual	-11.9291
▁reset	-11.9291
▁forgiving	-11.9293
▁heals	-11.9295
▁bleeding	-11.9299
▁laundering	-11.9309
TS	-11.9316
▁:/	-11.9317
▁XLT	-11.9322
▁pinched	-11.9324
late	-11.9326
▁neatly	-11.9328
▁softest	-11.9331
▁India	-11.9331
▁practice	-11.9335
▁boxer	-11.9335
▁needle	-11.9336
▁widest	-11.9338
▁$6	-11.9341
▁%	-11.9348
12	-11.9348
led	-11.9349
ically	-11.9351
▁ya	-11.9361
▁23	-11.9362
▁tendenc	-11.9366
pre	-11.937
-6	-11.9372
foot	-11.9374
▁te	-11.9377
▁deserve	-11.939
▁tones	-11.9391
▁boxers	-11.9402
▁De	-11.9409
▁$12	-11.9419
ten	-11.942
-8	-11.9423
▁dresser	-11.9434
▁organizers	-11.9438
▁sa	-11.944
▁definite	-11.9444
who	-11.9458
round	-11.9466
▁lesson	-11.9476
60	-11.948
-3	-11.9492
▁RE	-11.9514
io	-11.9529
▁folds	-11.9541
RO	-11.9544
▁footing	-11.9545
▁Mu	-11.9563
▁promise	-11.9601
ON	-11.9606
▁rule	-11.961
▁storm	-11.9611
▁habit	-11.9611
▁dude	-11.9611
▁application	-11.9613
▁hundred	-11.9615
▁ur	-11.9633
▁adults	-11.9638
Lovely	-11.964
▁cent	-11.9646
▁liners	-11.9651
40	-11.9654
AN	-11.9668
ear	-11.9673
▁fe	-11.9674
hip	-11.9675
▁packs	-11.9688
thick	-11.9694
BUT	-11.9695
That	-11.9695
MY	-11.9697
part	-11.9697
▁appeal	-11.9701
▁file	-11.9701
▁5'4	-11.9701
▁5'7	-11.9702
▁severe	-11.9704
▁proud	-11.9704
best	-11.9704
▁des	-11.9706
▁6'2	-11.9707
▁shimmer	-11.971
▁Scout	-11.9714
▁Izod	-11.9714
▁November	-11.9714
▁bungee	-11.9714
▁commercial	-11.9714
▁emblem	-11.9714
▁flexibility	-11.9714
▁jersey	-11.9714
▁removal	-11.9714
▁resort	-11.9714
▁separation	-11.9714
▁versatility	-11.9714
▁expense	-11.9714
▁biggie	-11.9714
▁dissatisfied	-11.9714
▁grandfather	-11.9714
▁chair	-11.9714
▁briefcase	-11.9714
▁primar	-11.9714
▁Yay	-11.9714
▁Omni	-11.9714
▁crappy	-11.9714
▁Saturday	-11.9714
▁grandpa	-11.9714
▁intense	-11.9714
▁million	-11.9714
▁brim	-11.9714
▁circumference	-11.9714
▁lleg	-11.9715
▁ribbon	-11.9715
▁Arctic	-11.9715
▁messenger	-11.9715
▁lenses	-11.9715
▁weightlifting	-11.9716
▁Personally	-11.9716
▁PERFECTLY	-11.9716
▁allergic	-11.9717
▁hefty	-11.9718
▁ultimately	-11.9718
▁lifestyle	-11.9719
▁stamped	-11.9719
▁healthy	-11.972
▁underpants	-11.9721
▁kneeling	-11.9721
▁lenght	-11.9723
▁Free	-11.9724
▁Depend	-11.9724
▁Where	-11.9726
▁ridge	-11.9726
▁OLD	-11.9727
cool	-11.9727
!!!!!!!	-11.9728
ight	-11.9728
▁screwed	-11.9728
▁crafted	-11.9729
▁irritated	-11.973
▁nobody	-11.9731
▁chosen	-11.9736
▁causal	-11.974
wish	-11.974
wearing	-11.9741
▁ruining	-11.9744
▁loafers	-11.9751
▁generously	-11.9752
▁budget	-11.9754
▁feed	-11.9755
▁$60	-11.9757
▁backside	-11.9759
▁planet	-11.976
▁unpleasant	-11.9761
▁hoody	-11.9769
offs	-11.9772
ang	-11.9774
▁workpants	-11.978
▁Ropers	-11.9782
▁soap	-11.9786
▁airy	-11.9788
Son	-11.9791
▁girly	-11.9794
▁Scholls	-11.9795
▁asks	-11.9804
▁gas	-11.9805
▁hundreds	-11.9813
ets	-11.9815
▁upside	-11.9818
▁settings	-11.9819
▁waterproofing	-11.9841
▁supposedly	-11.9842
▁230	-11.9851
▁strips	-11.9852
▁forest	-11.9853
iest	-11.9854
live	-11.9865
▁climates	-11.988
▁runners	-11.9884
▁accept	-11.9893
▁solidly	-11.9897
erry	-11.9916
▁6'1	-11.9918
lightly	-11.9945
▁Mar	-11.9947
▁bi	-11.9956
par	-11.9977
▁wranglers	-12.0001
ell	-12.001
▁creates	-12.0011
▁tin	-12.0026
▁boxy	-12.0031
feel	-12.0033
▁Khakis	-12.0041
Chuck	-12.0051
▁da	-12.0053
▁heaven	-12.0056
▁flatten	-12.0057
▁AN	-12.0058
▁trap	-12.006
▁Skamp	-12.0068
▁reviewing	-12.0071
AY	-12.0089
▁?	-12.0096
▁loos	-12.0099
toe	-12.0099
point	-12.0143
mas	-12.0143
watch	-12.0143
▁listen	-12.0146
Do	-12.0147
daughter	-12.0148
Merrell	-12.0148
Normally	-12.0148
plus	-12.0149
Keds	-12.0149
Tough	-12.0149
With	-12.0149
durable	-12.015
strap	-12.015
Bare	-12.0152
Other	-12.0154
pack	-12.0155
▁mirror	-12.0157
▁confirm	-12.0157
▁reluctant	-12.0158
▁1/4	-12.0159
▁unfortunate	-12.0159
thing	-12.016
▁fift	-12.0162
tch	-12.0165
dry	-12.0166
▁organize	-12.0167
▁baggie	-12.0167
▁dang	-12.0168
▁Jack	-12.0168
▁Bonehead	-12.0168
▁Ameribag	-12.0168
▁Disappointing	-12.0168
▁Insanity	-12.0168
▁adhesive	-12.0168
▁bristles	-12.0168
▁conceal	-12.0168
▁consumer	-12.0168
▁creep	-12.0168
▁cumbersome	-12.0168
▁girdle	-12.0168
▁nonetheless	-12.0168
▁puppies	-12.0168
▁quartz	-12.0168
▁stairs	-12.0168
▁substitute	-12.0168
▁bezel	-12.0168
▁target	-12.0168
▁Shadowline	-12.0168
▁perspective	-12.0168
▁percent	-12.0168
▁racerback	-12.0168
▁hourglass	-12.0169
▁childhood	-12.0169
▁lacy	-12.0169
▁Metallica	-12.0169
▁October	-12.0169
▁Rago	-12.0169
▁AMAZING	-12.0169
▁smile	-12.0169
▁drain	-12.0169
▁2017	-12.017
▁Picture	-12.017
▁standby	-12.017
▁vanity	-12.017
▁Key	-12.017
▁Width	-12.0171
▁Fabulous	-12.0171
▁Prompt	-12.0171
▁Half	-12.0171
▁SOME	-12.0171
▁5'1""	-12.0171
▁welder	-12.0171
mart	-12.0172
▁shall	-12.0172
▁WOW	-12.0172
▁annoyed	-12.0173
▁downfall	-12.0173
▁Huge	-12.0173
▁Fun	-12.0174
▁jack	-12.0174
▁MOST	-12.0174
▁sheerness	-12.0176
▁alas	-12.0176
oyal	-12.0176
▁wary	-12.0176
▁5-6	-12.0178
▁OP	-12.0178
▁seamless	-12.0182
And	-12.0183
▁scheduled	-12.0184
▁moon	-12.0186
▁Line	-12.0187
▁fraying	-12.0187
▁moderately	-12.0188
▁43	-12.0189
▁recall	-12.0191
Some	-12.0192
▁Ve	-12.0192
▁Goodwill	-12.02
▁spin	-12.0203
▁cushiony	-12.0207
▁parking	-12.0208
▁region	-12.0211
▁reaching	-12.0212
▁vi	-12.0214
▁catching	-12.0215
▁arrives	-12.0215
▁blu	-12.0218
▁posts	-12.0222
▁span	-12.0225
▁makeup	-12.0226
▁2-4	-12.0228
▁sick	-12.0228
▁justice	-12.0231
▁boats	-12.0239
▁Ex	-12.0248
95	-12.025
▁imagined	-12.0254
shorts	-12.0257
▁extenders	-12.0259
▁meetings	-12.0263
▁treads	-12.0274
▁Def	-12.0288
▁Keeping	-12.0295
has	-12.0309
▁irregular	-12.0341
jo	-12.0342
▁42""	-12.0343
++	-12.0366
bal	-12.0378
cy	-12.0378
ches	-12.0381
▁8.5.	-12.0384
▁Whe	-12.0406
▁outsole	-12.0419
▁gaps	-12.042
now	-12.0421
ster	-12.043
▁Timberlands	-12.0441
ily	-12.0464
ooooo	-12.0483
▁weekly	-12.0504
OO	-12.0515
▁coating	-12.0517
placing	-12.0524
Keen	-12.0528
▁stripe	-12.0539
▁imitation	-12.0543
▁attachment	-12.0545
▁twin	-12.0547
mine	-12.0547
▁Bras	-12.0549
▁DOES	-12.0552
▁Sneaker	-12.0556
▁ca	-12.0573
▁Stain	-12.0576
fish	-12.0581
▁Start	-12.0582
piece	-12.0601
▁OFF	-12.0609
buy	-12.0624
Wife	-12.0625
Keep	-12.0625
sometimes	-12.0625
front	-12.0625
stiff	-12.0625
Once	-12.0626
usually	-12.0626
shaped	-12.0627
didn	-12.063
▁5'6	-12.0631
▁crawl	-12.0632
▁vertical	-12.0634
▁Tops	-12.0636
▁discontinue	-12.0638
▁enter	-12.0639
▁skimp	-12.0641
▁NEED	-12.0641
▁avail	-12.0643
▁BIGGER	-12.0644
▁England	-12.0644
▁Money	-12.0644
▁Nevertheless	-12.0644
▁Shame	-12.0644
▁Suunto	-12.0644
▁accustomed	-12.0644
▁buzz	-12.0644
▁cautious	-12.0644
▁chafe	-12.0644
▁debris	-12.0644
▁envelope	-12.0644
▁gamble	-12.0644
▁inconvenience	-12.0644
▁pliers	-12.0644
▁seamstress	-12.0644
▁wrinkling	-12.0644
▁producing	-12.0644
▁crouch	-12.0644
▁flesh	-12.0644
▁deduct	-12.0644
▁yank	-12.0644
Packaging	-12.0644
▁Strange	-12.0644
▁pillow	-12.0645
▁organization	-12.0645
▁technician	-12.0645
▁hemming	-12.0645
▁BECA	-12.0645
▁Ever	-12.0645
▁fellow	-12.0645
▁slippage	-12.0645
▁BRA	-12.0645
▁NEW	-12.0645
▁frustrated	-12.0645
▁floppy	-12.0645
▁dept	-12.0646
▁WARM	-12.0646
▁Lightyear	-12.0646
▁2-	-12.0646
▁fatter	-12.0647
▁Pantyhose	-12.0647
▁Italy	-12.0647
▁Exchang	-12.0647
▁According	-12.0648
▁Appear	-12.0649
▁realistic	-12.0649
▁cramped	-12.0649
▁meeting	-12.065
▁shaping	-12.065
▁conscious	-12.065
▁Gold	-12.065
▁soo	-12.0651
▁Tip	-12.0651
▁135	-12.0651
▁toebox	-12.0652
▁(4	-12.0652
▁hotel	-12.0654
flops	-12.0656
74	-12.0656
▁incorrectly	-12.0658
▁scared	-12.0659
▁teeth	-12.0659
▁Lol	-12.0659
▁grain	-12.0659
▁saver	-12.0662
▁era	-12.0663
▁disappoints	-12.0665
Light	-12.0667
▁donate	-12.0668
▁vans	-12.0672
▁#1	-12.0673
▁counts	-12.0675
▁researched	-12.0678
▁supplies	-12.0681
▁Hero	-12.0681
▁REI	-12.0682
▁10+	-12.0683
▁plate	-12.0684
▁folding	-12.0684
▁Shoulder	-12.0685
tail	-12.0687
▁bell	-12.069
:(	-12.069
▁donated	-12.0691
▁employees	-12.0695
▁pajamas	-12.07
▁sandles	-12.07
▁Lastly	-12.0703
▁tablet	-12.0705
▁crossed	-12.0706
▁tucking	-12.0711
mber	-12.0713
▁Grasshoppers	-12.0715
▁brings	-12.0737
▁differences	-12.0737
ria	-12.0739
▁reordering	-12.074
▁7""	-12.0746
▁secured	-12.0752
▁til	-12.0755
▁operate	-12.0757
▁Far	-12.076
▁updated	-12.0764
hr	-12.0784
▁hanger	-12.0802
▁cleaners	-12.0805
▁aspects	-12.0817
▁cl	-12.0834
▁cry	-12.0835
orn	-12.0841
▁300	-12.0853
▁Help	-12.0854
LL	-12.0861
▁AL	-12.0884
▁shortly	-12.0909
▁rag	-12.0919
tuck	-12.0928
ise	-12.0929
▁manly	-12.0932
ard	-12.0938
▁10""	-12.094
▁loads	-12.094
cl	-12.0942
▁checks	-12.0945
▁cuter	-12.0946
▁experiences	-12.0956
▁shin	-12.0959
every	-12.0959
▁Pe	-12.0962
▁limit	-12.0963
▁Whispers	-12.099
▁hairs	-12.1005
▁ga	-12.101
▁dent	-12.101
▁Gr	-12.103
▁thong	-12.1044
▁undergarment	-12.1046
▁ty	-12.1046
▁vein	-12.1048
▁capri	-12.1049
▁extender	-12.1052
rate	-12.1053
▁Boy	-12.106
green	-12.1067
▁AAA	-12.1071
▁med	-12.1073
▁Pu	-12.1074
▁=)	-12.1075
▁dozens	-12.108
ja	-12.1084
▁bothers	-12.1087
THE	-12.1096
2'	-12.1101
▁truth	-12.1103
▁pops	-12.1106
▁(6	-12.1106
▁7.5.	-12.1111
fect	-12.1116
images	-12.1124
Did	-12.1124
Regular	-12.1124
school	-12.1124
Hanes	-12.1125
summer	-12.1125
Amazon	-12.1125
Will	-12.1125
should	-12.1125
since	-12.1125
running	-12.1125
▁Purchas	-12.1129
▁table	-12.113
▁curl	-12.1131
▁guarantee	-12.1132
au	-12.1132
▁estimate	-12.1132
dryer	-12.1133
▁settle	-12.1134
Every	-12.1138
▁shoot	-12.1139
oz	-12.114
AM	-12.1143
▁batch	-12.1143
Military	-12.1144
▁Duluth	-12.1144
▁EVERYTHING	-12.1144
▁FEET	-12.1144
▁PROBLEM	-12.1144
▁REVIEW	-12.1144
▁September	-12.1144
▁crowd	-12.1144
▁depicted	-12.1144
▁fortune	-12.1144
▁horizontal	-12.1144
▁memories	-12.1144
▁method	-12.1144
▁necessity	-12.1144
▁nowadays	-12.1144
▁oval	-12.1144
▁webbing	-12.1144
▁welcome	-12.1144
▁guidelines	-12.1144
▁instance	-12.1144
▁Boyfriend	-12.1144
▁restrictive	-12.1144
▁WHI	-12.1144
▁chef	-12.1145
▁cement	-12.1145
▁FIND	-12.1145
▁Costco	-12.1145
▁unattractive	-12.1145
▁unflattering	-12.1145
▁BLACK	-12.1145
▁sake	-12.1145
▁rush	-12.1145
▁;-)	-12.1145
▁specified	-12.1145
▁divided	-12.1145
▁stout	-12.1145
▁NYC	-12.1145
▁racer	-12.1146
▁NY	-12.1146
▁boss	-12.1146
▁travelling	-12.1146
▁tagged	-12.1146
▁zipped	-12.1146
▁inflatable	-12.1147
▁marathon	-12.1147
▁8-10	-12.1148
▁PROS	-12.1148
▁fanny	-12.1149
▁DICKIES	-12.1149
▁COLORS	-12.115
▁mowing	-12.115
▁brainer	-12.115
▁155	-12.115
▁EVEN	-12.1151
▁SON	-12.1151
▁Ripped	-12.1151
▁involved	-12.1153
▁Favorite	-12.1153
▁cling	-12.1153
▁cheer	-12.1153
▁whites	-12.1154
▁squished	-12.1155
▁combined	-12.1155
▁twill	-12.1155
▁outgrown	-12.1156
▁ne	-12.1172
▁blends	-12.1176
last	-12.1183
show	-12.1183
▁ladders	-12.1188
/8	-12.119
▁wondered	-12.1193
▁cm	-12.1195
▁painted	-12.1195
▁exp	-12.1195
dad	-12.1199
▁horns	-12.1203
▁bout	-12.1206
ew	-12.121
-10	-12.1218
▁objects	-12.1223
▁ropers	-12.1229
▁handled	-12.1236
▁sz	-12.1257
leg	-12.1261
cing	-12.1262
▁repurchase	-12.1262
▁5'5	-12.1263
▁flowers	-12.1265
▁uni	-12.1269
▁contents	-12.127
▁fixing	-12.1286
▁styled	-12.1287
▁hid	-12.1313
▁decently	-12.1325
▁para	-12.1338
▁scrap	-12.1348
6-8	-12.1375
▁shed	-12.1379
ABLE	-12.1381
/32	-12.1386
▁Med	-12.1417
▁swap	-12.1424
▁na	-12.1445
ran	-12.1446
▁roads	-12.1451
nside	-12.1463
-20	-12.1467
▁plays	-12.1475
itle	-12.148
▁parks	-12.1482
▁defi	-12.1488
eat	-12.1489
▁repairs	-12.1502
▁sn	-12.1517
▁gowns	-12.1524
▁Incredibl	-12.1537
eign	-12.154
oooooo	-12.1546
tumble	-12.155
▁WE	-12.1555
tying	-12.1557
▁connect	-12.1557
▁$4	-12.1561
▁curve	-12.1562
▁Ro	-12.1563
▁indicate	-12.1563
▁melt	-12.1563
▁bikini	-12.1568
▁nightgown	-12.157
▁Scholl	-12.1572
▁knockoff	-12.1576
cose	-12.1587
cap	-12.1591
▁Easi	-12.1594
▁holders	-12.1596
▁USE	-12.1601
▁repel	-12.1603
eal	-12.1608
▁join	-12.1609
▁6-7	-12.1632
room	-12.1638
▁Compar	-12.1648
swiss	-12.1649
VERY	-12.165
Same	-12.1651
blue	-12.1651
definitely	-12.1651
between	-12.1651
again	-12.1652
average	-12.1653
▁squish	-12.1654
both	-12.1654
probably	-12.1657
Didn	-12.1658
▁exceed	-12.166
▁routine	-12.1661
▁5'3	-12.1661
▁sel	-12.1668
▁lickin	-12.167
▁RETURN	-12.167
▁Foot	-12.1671
▁electric	-12.1671
▁BACK	-12.1671
▁Celtic	-12.1671
▁Heiress	-12.1671
▁Lifestride	-12.1671
▁MATERIAL	-12.1671
▁Reebok	-12.1671
▁blame	-12.1671
▁compromise	-12.1671
▁efficient	-12.1671
▁frankly	-12.1671
▁girth	-12.1671
▁gracias	-12.1671
▁grasshopper	-12.1671
▁gusset	-12.1671
▁iPad	-12.1671
▁inaccurate	-12.1671
▁landscaping	-12.1671
▁official	-12.1671
▁problematic	-12.1671
▁reccomend	-12.1671
▁reserve	-12.1671
▁sausage	-12.1671
\	-12.1671
izard	-12.1671
▁challenging	-12.1671
▁desperate	-12.1671
▁gross	-12.1671
▁SOFT	-12.1671
▁Store	-12.1671
▁jogging	-12.1671
▁repellent	-12.1671
▁fraction	-12.1671
▁generation	-12.1671
▁Eventually	-12.1671
▁electrician	-12.1671
▁boring	-12.1671
▁conversion	-12.1671
▁Disneyland	-12.1671
▁forgotten	-12.1671
▁unacceptable	-12.1671
▁Adjustable	-12.1671
▁frozen	-12.1671
▁SHOULD	-12.1671
▁unhemmed	-12.1671
▁bien	-12.1671
▁wake	-12.1671
▁unexpected	-12.1671
▁stage	-12.1672
▁pole	-12.1672
▁suntan	-12.1672
▁UV	-12.1672
▁metallic	-12.1672
▁ordinary	-12.1672
▁Casual	-12.1672
▁blind	-12.1672
▁TIGHT	-12.1672
▁grippy	-12.1673
▁attest	-12.1673
▁Deal	-12.1673
▁sink	-12.1673
▁Chain	-12.1673
▁Carhardt	-12.1673
▁Workwear	-12.1674
▁economical	-12.1674
▁leggs	-12.1675
▁dreaded	-12.1675
▁Broke	-12.1675
▁aging	-12.1675
▁slightest	-12.1676
▁Sam	-12.1676
▁145	-12.1676
▁sack	-12.1676
▁Smell	-12.1677
▁Knee	-12.1677
▁.5	-12.1677
▁grind	-12.1677
▁**	-12.1678
▁reader	-12.1679
▁max	-12.1679
▁stonewashed	-12.1679
▁represented	-12.1681
▁THANKS	-12.1681
▁Wallet	-12.1681
▁Genuine	-12.1682
▁RED	-12.1683
▁Nope	-12.1683
▁undersized	-12.1685
▁halfway	-12.1685
▁crawling	-12.1685
▁Tra	-12.1685
▁Except	-12.1686
▁backwards	-12.1688
▁cancer	-12.1688
▁225	-12.169
▁deadlifts	-12.169
▁oxfords	-12.1695
▁20+	-12.1696
▁treated	-12.1696
▁q	-12.1697
▁johns	-12.1698
▁Larger	-12.1699
▁(2)	-12.1703
▁65	-12.1704
▁lover	-12.1705
▁everytime	-12.1708
▁squeaking	-12.1709
▁fave	-12.171
▁latex	-12.171
Stars	-12.1714
▁counter	-12.1718
▁reached	-12.1722
▁bro	-12.1733
▁jumping	-12.1736
ak	-12.1736
▁separates	-12.1738
Extreme	-12.1745
▁clogs	-12.175
▁scrubs	-12.175
▁linen	-12.175
,000	-12.1753
▁painter	-12.1753
ities	-12.1754
hold	-12.1763
▁taper	-12.177
▁3)	-12.1783
once	-12.1785
▁forced	-12.1788
Ga	-12.1794
ese	-12.1795
▁(38	-12.1799
▁specs	-12.18
▁52	-12.1802
▁uncle	-12.1803
rim	-12.1809
▁timberlands	-12.1814
▁Asia	-12.1815
▁layered	-12.1823
▁judge	-12.1824
/4	-12.185
▁cr	-12.1852
▁pan	-12.1858
▁Hand	-12.1859
▁FI	-12.1862
▁net	-12.1864
▁airports	-12.1869
▁fasteners	-12.1875
lined	-12.1876
ns	-12.1883
fitted	-12.19
ash	-12.1906
fully	-12.1925
▁chip	-12.193
iff	-12.1938
ware	-12.1939
▁DE	-12.194
▁Vi	-12.1947
full	-12.195
▁Gra	-12.1955
▁drivers	-12.1979
▁shifts	-12.1989
▁See	-12.1994
▁min	-12.1995
head	-12.2006
▁regards	-12.2011
lar	-12.2013
▁resemble	-12.2016
▁pros	-12.2035
▁cracks	-12.204
▁toned	-12.2062
▁comp	-12.2075
vis	-12.2097
▁contain	-12.2101
▁contour	-12.2114
elieve	-12.2119
▁race	-12.2123
▁Dickey	-12.2127
▁supporting	-12.2127
▁accent	-12.2127
▁variation	-12.2128
▁direction	-12.213
▁concerns	-12.2133
berry	-12.2136
▁dare	-12.2142
▁Hat	-12.2143
▁bath	-12.2149
Though	-12.2154
ade	-12.2165
ordering	-12.2165
walk	-12.2191
▁organiz	-12.2196
stick	-12.2202
board	-12.2204
Poor	-12.2207
khaki	-12.2207
Feel	-12.2207
original	-12.2207
How	-12.2207
control	-12.2207
however	-12.2207
two	-12.2207
without	-12.2208
exactly	-12.2209
▁Liv	-12.221
▁impress	-12.2211
----	-12.2215
warm	-12.2216
wood	-12.2217
▁"<	-12.2219
▁velvet	-12.222
▁5'2	-12.2221
ternal	-12.2226
▁Arizona	-12.2226
▁BEFORE	-12.2226
▁BETTER	-12.2226
▁Bummer	-12.2226
▁February	-12.2226
▁GIFT	-12.2226
▁KEEP	-12.2226
▁KNOW	-12.2226
▁Republic	-12.2226
▁Smith	-12.2226
▁Straight	-12.2226
▁accomodate	-12.2226
▁brutal	-12.2226
▁charity	-12.2226
▁duffel	-12.2226
▁film	-12.2226
▁grandmother	-12.2226
▁honey	-12.2226
▁irritation	-12.2226
▁maximum	-12.2226
▁neuropathy	-12.2226
▁scissors	-12.2226
▁squeezing	-12.2226
▁studs	-12.2226
▁BELT	-12.2226
▁emergency	-12.2226
▁quibble	-12.2226
▁CUTE	-12.2226
▁mobility	-12.2226
▁neighborhood	-12.2226
▁steady	-12.2226
▁Own	-12.2226
▁translate	-12.2226
▁utilitarian	-12.2226
▁camouflage	-12.2226
▁club	-12.2226
▁HIM	-12.2226
▁trek	-12.2226
▁Feet	-12.2226
▁criticism	-12.2226
▁shaft	-12.2226
▁Sunday	-12.2226
▁decrease	-12.2226
▁entry	-12.2227
▁Queen	-12.2227
▁Lena	-12.2227
▁PFG	-12.2227
▁borderline	-12.2227
▁splash	-12.2227
▁tomorrow	-12.2227
▁IMO	-12.2227
▁Regard	-12.2227
▁Jim	-12.2227
▁SMALLER	-12.2227
▁insane	-12.2227
▁Gear	-12.2227
▁dump	-12.2227
MENT	-12.2227
▁Design	-12.2228
▁CHEAP	-12.2228
▁Construction	-12.2228
▁Doctor	-12.2228
▁aggressive	-12.2228
▁Baggy	-12.2228
▁shopper	-12.2228
▁household	-12.2228
▁Santa	-12.2228
Tech	-12.2228
▁grandma	-12.2229
▁technically	-12.2229
▁station	-12.2229
▁tacky	-12.2229
▁Slim	-12.2229
▁2010	-12.2229
▁expandable	-12.2229
▁38/30	-12.223
▁pullover	-12.223
▁Rocky	-12.2231
▁Neck	-12.2231
▁suddenly	-12.2231
▁beefy	-12.2231
▁skinned	-12.2231
▁Snug	-12.2232
▁wading	-12.2233
▁skimpy	-12.2233
▁hipster	-12.2234
waisted	-12.2234
▁legged	-12.2234
▁fuzzy	-12.2235
▁grommets	-12.2235
▁gaiter	-12.2235
▁Truly	-12.2236
▁YES	-12.2236
▁timing	-12.2236
▁Whatever	-12.2236
▁Simply	-12.2238
She	-12.2239
▁spilling	-12.2239
▁beaches	-12.2239
▁240	-12.2239
▁peek	-12.224
breaking	-12.2242
▁touches	-12.2242
ched	-12.2243
▁somebody	-12.2245
▁10/10	-12.2248
▁NB	-12.2248
▁produced	-12.225
▁twisted	-12.2252
▁ole	-12.2254
▁unusually	-12.2254
▁armor	-12.2256
▁proportions	-12.2258
▁Initially	-12.2262
hem	-12.2262
▁mad	-12.2264
▁replaceable	-12.2266
▁TRUE	-12.227
▁streams	-12.2275
▁outings	-12.2276
▁compensate	-12.2279
▁tightened	-12.2279
▁Button	-12.2282
▁breathes	-12.2284
▁cuffed	-12.2285
▁1-	-12.2285
▁del	-12.2286
▁squeezed	-12.2288
▁btw	-12.2291
▁alterations	-12.2292
▁shortest	-12.2294
▁60'	-12.2296
▁CA	-12.2303
▁counting	-12.2308
Easily	-12.2308
▁mint	-12.2314
▁warmest	-12.2314
▁chances	-12.232
▁requirements	-12.232
▁students	-12.232
Wx	-12.2322
▁lifted	-12.2322
▁soled	-12.2325
gan	-12.2325
slightly	-12.2331
▁undergarments	-12.2338
▁led	-12.2341
▁soaking	-12.2341
XLT	-12.2346
vil	-12.2349
tra	-12.2354
Pro	-12.236
/34	-12.2367
▁Bibs	-12.2372
▁action	-12.2374
▁goal	-12.2377
▁aqua	-12.2383
▁esp	-12.2385
▁blouses	-12.2389
Go	-12.2391
▁movies	-12.2407
▁pearls	-12.2407
Co	-12.2417
▁4-	-12.2417
▁raining	-12.2423
pping	-12.2423
▁savings	-12.2424
▁manufactures	-12.2424
▁Buyer	-12.2425
▁shops	-12.2428
ature	-12.2448
▁nicest	-12.245
CE	-12.2458
▁Mi	-12.2458
▁24-	-12.246
▁Tom	-12.246
air	-12.2478
▁Ch	-12.2485
mid	-12.2487
▁brass	-12.2506
▁bumps	-12.2517
▁Shorts	-12.2523
............	-12.2524
▁Classics	-12.2525
ups	-12.2531
ANY	-12.2544
▁unravel	-12.2554
▁fitment	-12.2555
▁Bo	-12.2556
▁aged	-12.2558
▁32'	-12.2568
▁alleviate	-12.2577
▁LEA	-12.2578
▁sm	-12.2578
▁$35	-12.2586
mple	-12.2601
▁revis	-12.2611
tempted	-12.2617
ps	-12.2641
▁pace	-12.2666
▁110	-12.2668
▁Hu	-12.2672
act	-12.2685
▁spill	-12.2688
lime	-12.2691
Pant	-12.2693
▁lump	-12.2709
▁Hey	-12.2711
▁Birkenstock	-12.2714
▁concert	-12.2714
▁cloud	-12.2715
▁student	-12.2716
▁requirement	-12.2718
▁Kid	-12.272
▁roper	-12.272
▁TH	-12.2744
achine	-12.275
mail	-12.2763
gle	-12.277
ERS	-12.2783
our	-12.2789
▁tote	-12.279
then	-12.2793
either	-12.2793
Simple	-12.2795
Please	-12.2795
first	-12.2795
why	-12.2795
material	-12.2795
everything	-12.2795
Second	-12.2795
arrived	-12.2795
brown	-12.2795
grew	-12.2797
Sizing	-12.2798
▁faith	-12.2798
Man	-12.28
▁photograph	-12.28
▁sail	-12.2802
▁stored	-12.2802
fashioned	-12.2803
▁represent	-12.2803
▁5'8	-12.2805
▁Expect	-12.2805
▁(32	-12.2806
▁YEAR	-12.2812
dressy	-12.2814
▁Merrel	-12.2814
▁origin	-12.2814
▁fulfill	-12.2814
▁subject	-12.2814
corporate	-12.2815
▁Citizen	-12.2815
▁Cuddl	-12.2815
▁Internet	-12.2815
▁Neatnix	-12.2815
▁accuracy	-12.2815
▁associate	-12.2815
▁entrega	-12.2815
▁frumpy	-12.2815
▁hurry	-12.2815
▁maidenform	-12.2815
▁masculine	-12.2815
▁miracle	-12.2815
▁newborn	-12.2815
▁police	-12.2815
▁prettier	-12.2815
▁remote	-12.2815
▁sponge	-12.2815
▁tractor	-12.2815
▁trunk	-12.2815
▁twelve	-12.2815
▁unbelievably	-12.2815
▁waaaay	-12.2815
▁AmeriBag	-12.2815
▁Provide	-12.2815
▁UNDER	-12.2815
▁decline	-12.2815
▁eviden	-12.2815
▁mislabeled	-12.2815
▁BAD	-12.2815
▁June	-12.2815
▁unbeatable	-12.2815
▁unnecessary	-12.2815
▁deceiving	-12.2815
▁urban	-12.2815
▁daddy	-12.2815
▁delay	-12.2815
▁pleasing	-12.2815
▁FAST	-12.2815
▁availability	-12.2815
▁treadmill	-12.2815
▁assortment	-12.2815
▁Waterproof	-12.2815
▁blanket	-12.2815
▁iconic	-12.2815
▁suitcase	-12.2815
▁accessible	-12.2815
▁FINE	-12.2815
▁pride	-12.2815
▁rose	-12.2815
▁Minnesota	-12.2815
▁Wolverine	-12.2815
▁obsessed	-12.2815
▁humidity	-12.2815
▁prewashed	-12.2815
▁HATE	-12.2816
▁shipper	-12.2816
▁Slap	-12.2816
▁BOOTS	-12.2816
▁illuminate	-12.2816
▁Hose	-12.2816
▁Plain	-12.2816
▁surgeries	-12.2816
▁ticket	-12.2817
▁copy	-12.2817
▁scoop	-12.2817
▁Basic	-12.2817
▁flopping	-12.2818
▁Carharrt	-12.2818
▁shelter	-12.2818
▁theater	-12.2818
▁complicated	-12.2819
▁ounce	-12.2819
▁bummer	-12.2819
▁Weird	-12.2819
▁readily	-12.2819
▁195	-12.2819
▁drill	-12.282
▁bird	-12.282
▁luv	-12.282
▁Flat	-12.282
▁assembl	-12.2821
▁dock	-12.2821
▁Superman	-12.2822
▁Goo	-12.2823
▁assured	-12.2823
sport	-12.2826
▁shapewear	-12.2826
▁unraveling	-12.2828
++++	-12.2828
▁tennies	-12.283
▁container	-12.283
▁shapes	-12.283
▁toughness	-12.2831
▁curved	-12.2833
An	-12.2833
▁compares	-12.2833
▁MAKE	-12.2833
▁altered	-12.2834
▁growth	-12.2835
▁Brooks	-12.2836
▁permanently	-12.284
▁dusty	-12.2842
▁bas	-12.2845
▁punch	-12.2846
▁wicking	-12.2847
▁cast	-12.285
▁serviceable	-12.285
▁relaxing	-12.2856
▁gaping	-12.2858
▁fakes	-12.2866
▁farther	-12.2869
pp	-12.2871
▁armpits	-12.2872
▁muck	-12.2874
▁printing	-12.2875
pop	-12.2877
working	-12.2883
▁opens	-12.2883
return	-12.2886
antly	-12.2892
▁pinche	-12.2893
▁markings	-12.2896
▁wishes	-12.2906
▁fibers	-12.2908
▁WOR	-12.2916
▁breasted	-12.292
▁Spend	-12.292
▁accents	-12.292
▁variations	-12.2921
▁mentioning	-12.2921
▁heed	-12.2937
▁abused	-12.2944
▁LO	-12.2946
▁El	-12.2947
▁greatly	-12.2949
ired	-12.295
▁purposely	-12.2955
ump	-12.2956
▁Ho	-12.2959
gg	-12.296
▁Dick	-12.2966
▁summers	-12.2971
▁Siders	-12.2971
ign	-12.298
▁forming	-12.2981
PL	-12.2998
ane	-12.3001
tex	-12.3012
▁cal	-12.3028
▁fr	-12.3029
▁Dry	-12.303
dle	-12.304
ional	-12.3042
▁sk	-12.3042
tactical	-12.3055
ANT	-12.3059
ATE	-12.3061
▁outward	-12.3064
tie	-12.3108
stuff	-12.3114
▁headaches	-12.3123
▁charges	-12.3124
eth	-12.3125
▁bite	-12.3128
▁streets	-12.313
rent	-12.3133
ked	-12.3142
comfy	-12.3154
▁fabrics	-12.3158
RY	-12.3168
▁charms	-12.3182
ose	-12.3184
▁Air	-12.32
stone	-12.3203
ties	-12.3207
die	-12.3209
lf	-12.3223
any	-12.3241
vy	-12.3246
▁Plann	-12.3246
▁Prefer	-12.3255
▁3-	-12.326
▁evenly	-12.3266
ique	-12.3267
hopping	-12.3268
▁fans	-12.3273
ole	-12.3281
▁ITS	-12.3284
▁75	-12.3287
▁XX	-12.3288
▁prom	-12.3295
Hi	-12.3316
▁whom	-12.3319
hu	-12.3323
▁pare	-12.3329
ID	-12.3334
▁merrell	-12.3337
worker	-12.3341
▁object	-12.3341
▁comfie	-12.3341
▁Roper	-12.3342
▁fiber	-12.3345
ung	-12.335
own	-12.3353
molded	-12.3355
▁Z	-12.336
▁shines	-12.3371
▁99	-12.338
▁Quilt	-12.3388
Thought	-12.3406
**	-12.3406
▁fl	-12.3407
price	-12.3408
TE	-12.3413
▁dies	-12.3419
Wacoal	-12.342
Adorable	-12.342
Wrangler	-12.342
Fabric	-12.342
Gift	-12.342
house	-12.342
minute	-12.342
THESE	-12.342
pocket	-12.342
padded	-12.342
half	-12.342
everyday	-12.342
Long	-12.3421
dust	-12.3422
Who	-12.3423
▁Sand	-12.3425
unlike	-12.3425
▁antique	-12.3426
▁resolve	-12.3426
▁retire	-12.3427
▁Package	-12.3427
▁Stretch	-12.3433
along	-12.3434
▁Girl	-12.3434
▁Angel	-12.3438
▁ignore	-12.3438
▁princess	-12.3438
sleeved	-12.3439
▁WHO	-12.3439
DAUGHTER	-12.344
▁AFTER	-12.344
▁Different	-12.344
▁EASY	-12.344
▁NATO	-12.344
▁STYLE	-12.344
▁advertising	-12.344
▁approved	-12.344
▁beneath	-12.344
▁cheesy	-12.344
▁competition	-12.344
▁conservative	-12.344
▁frustration	-12.344
▁groin	-12.344
▁heartbeat	-12.344
▁interview	-12.344
▁reaction	-12.344
▁reliability	-12.344
▁senior	-12.344
▁struggling	-12.344
▁titanium	-12.344
▁ecstatic	-12.344
▁social	-12.344
▁vendedor	-12.344
▁woven	-12.344
▁Health	-12.344
▁qualities	-12.344
▁ribcage	-12.344
▁gauge	-12.344
▁saggy	-12.344
▁staff	-12.344
▁Fire	-12.344
▁WORTH	-12.344
▁heavily	-12.344
▁ALSO	-12.344
▁annoyance	-12.344
▁forefoot	-12.344
▁google	-12.344
▁kink	-12.344
faux	-12.344
▁neighbor	-12.344
▁turquoise	-12.344
▁dying	-12.344
TECH	-12.344
▁edit	-12.344
▁Stax	-12.344
▁steam	-12.344
▁sturdiness	-12.344
▁reception	-12.344
▁SHIRT	-12.344
▁Duds	-12.344
▁definition	-12.344
▁Ugh	-12.344
▁reflective	-12.344
▁tolerate	-12.344
▁advertisement	-12.344
▁unbleached	-12.344
▁latter	-12.344
▁unbearable	-12.344
▁bulkier	-12.3441
▁restock	-12.3441
▁campus	-12.3441
▁bling	-12.3441
▁sunlight	-12.3441
Haven	-12.3441
▁ghost	-12.3442
▁program	-12.3442
▁orthopedic	-12.3442
▁random	-12.3442
▁WON	-12.3442
▁hideous	-12.3442
▁RUNS	-12.3442
▁stunning	-12.3442
▁wristwatch	-12.3443
▁Said	-12.3443
▁uniboob	-12.3443
▁tangled	-12.3443
▁consistant	-12.3443
▁Unisex	-12.3444
▁fussy	-12.3444
▁Sahara	-12.3445
▁BAND	-12.3445
▁tickin	-12.3445
▁china	-12.3445
▁wherever	-12.3446
▁lumpy	-12.3446
▁constricting	-12.3446
▁sex	-12.3447
▁Indonesia	-12.3447
▁Bu	-12.3447
▁Surprisingly	-12.3448
suit	-12.3448
▁Nude	-12.3448
▁greenish	-12.3449
▁mommy	-12.345
▁aunt	-12.345
▁smoke	-12.3451
▁iphone	-12.3451
mile	-12.3453
▁550	-12.3454
▁1/4""	-12.3456
▁Lined	-12.3457
..........	-12.3458
▁fac	-12.3459
▁classes	-12.346
tive	-12.3461
▁poked	-12.3463
▁profit	-12.3466
▁whistles	-12.3469
▁deer	-12.3469
nch	-12.3469
▁viewing	-12.3471
▁ect	-12.3474
▁tailoring	-12.3474
▁trashed	-12.3475
▁installed	-12.3476
▁performing	-12.3476
siders	-12.3479
▁pig	-12.3481
▁adventures	-12.3482
▁6+	-12.3487
▁demands	-12.3494
▁books	-12.3495
▁Land	-12.35
70	-12.3501
cup	-12.3501
▁strangely	-12.3503
▁flying	-12.3512
▁usa	-12.3515
▁5'0	-12.3515
▁rivets	-12.352
TO	-12.3523
▁adjusts	-12.3526
▁puddles	-12.3527
▁dim	-12.3527
▁smoother	-12.3527
▁safely	-12.3529
▁su	-12.353
▁distinct	-12.3533
▁heft	-12.3533
centi	-12.3537
▁Carharts	-12.3545
▁marker	-12.3546
shake	-12.3552
▁Mr	-12.3553
▁contains	-12.3553
HIS	-12.3556
▁(7	-12.3562
▁bunching	-12.3564
EW	-12.3565
her	-12.3566
▁Priced	-12.3575
▁Com	-12.3576
years	-12.3578
▁happening	-12.3578
▁z	-12.3579
lan	-12.3587
▁packages	-12.3587
▁newport	-12.3588
▁touched	-12.3592
▁Gre	-12.3599
▁womans	-12.3608
-32	-12.3612
ler	-12.3613
ou	-12.3617
▁pokes	-12.3624
▁bells	-12.3627
▁granddaughters	-12.3629
▁(10	-12.3629
▁!!!!!	-12.3649
thigh	-12.365
▁holidays	-12.3657
▁LA	-12.3664
▁magnets	-12.367
▁greater	-12.3671
▁gals	-12.3675
▁Sports	-12.3678
put	-12.3689
▁TOP	-12.3695
tter	-12.3708
▁Al	-12.3716
▁members	-12.3723
▁$3	-12.3726
hop	-12.3735
ama	-12.374
ax	-12.3743
▁pills	-12.3756
▁reports	-12.3757
-40	-12.3773
ening	-12.3774
▁scrape	-12.378
ely	-12.3788
▁doubts	-12.3795
ook	-12.3799
-34	-12.3805
▁West	-12.3807
sisted	-12.3808
▁54	-12.3808
▁coloring	-12.381
▁scrub	-12.3821
▁insist	-12.3828
75	-12.3833
▁timer	-12.3842
▁Sh	-12.3863
▁fails	-12.387
▁clog	-12.3873
TION	-12.3883
90	-12.3887
nts	-12.3892
▁attache	-12.3895
stop	-12.3896
wi	-12.3902
laid	-12.3902
chy	-12.3903
▁Q	-12.3911
fl	-12.3918
mate	-12.3969
44	-12.3971
formal	-12.3987
boot	-12.3989
pl	-12.3997
urious	-12.3997
izing	-12.3998
▁bustier	-12.4005
▁liquid	-12.4006
▁creek	-12.4006
▁coworker	-12.4006
▁Teva	-12.4007
▁Grasshopper	-12.4008
▁arthriti	-12.4008
▁chore	-12.4009
▁suspender	-12.401
▁combinations	-12.4011
ong	-12.402
east	-12.4023
inches	-12.4026
▁underarm	-12.4027
▁Sk	-12.4029
▁hightop	-12.403
▁beef	-12.4032
▁wal	-12.4055
▁FL	-12.4061
▁adapt	-12.4066
▁doors	-12.4072
phone	-12.4073
▁scar	-12.4074
press	-12.4078
formed	-12.408
load	-12.408
book	-12.4083
review	-12.4084
Short	-12.4086
overall	-12.4086
section	-12.4086
Strong	-12.4086
Leather	-12.4086
Why	-12.4086
purpose	-12.4086
awesome	-12.4087
Maybe	-12.4087
Lightweight	-12.4087
Price	-12.4087
better	-12.4087
Brown	-12.4087
rugged	-12.4087
Never	-12.4088
extra	-12.4089
model	-12.4089
Our	-12.409
▁continu	-12.409
friendly	-12.4091
▁55	-12.4092
▁rapid	-12.4092
▁deteriorate	-12.4093
OLD	-12.4093
▁inflate	-12.4093
▁gather	-12.4094
▁Op	-12.4094
wore	-12.4094
went	-12.4095
▁OVER	-12.41
▁warrant	-12.41
▁gloss	-12.41
iron	-12.4102
▁Rain	-12.4103
Elastic	-12.4106
OUR	-12.4106
▁Carthartt	-12.4106
▁MONEY	-12.4106
▁Mouse	-12.4106
▁SHRINK	-12.4106
▁Wisconsin	-12.4106
▁arriving	-12.4106
▁correspond	-12.4106
▁gently	-12.4106
▁gigantic	-12.4106
▁insurance	-12.4106
▁introduce	-12.4106
▁monochrome	-12.4106
▁parachute	-12.4106
▁punishment	-12.4106
▁railroad	-12.4106
▁Panache	-12.4106
▁Tiger	-12.4106
▁snagging	-12.4106
▁Saw	-12.4106
▁York	-12.4106
▁community	-12.4106
▁luxurious	-12.4106
▁pronate	-12.4106
▁Close	-12.4106
▁argue	-12.4106
▁reduction	-12.4106
▁stroke	-12.4106
▁sweep	-12.4106
▁snuggly	-12.4106
▁flood	-12.4106
▁slept	-12.4106
▁Dominic	-12.4106
▁clue	-12.4106
▁trekking	-12.4106
▁circle	-12.4106
▁continually	-12.4106
▁WANTED	-12.4106
▁abdomen	-12.4106
▁pretend	-12.4106
▁Camo	-12.4107
▁Protect	-12.4107
▁Yep	-12.4107
▁master	-12.4107
▁WORN	-12.4107
▁inspection	-12.4107
▁magician	-12.4107
▁Post	-12.4107
▁unusable	-12.4107
▁grime	-12.4107
▁unglued	-12.4107
▁breathability	-12.4107
▁$5.00	-12.4107
▁XXXL	-12.4107
▁MEN	-12.4107
▁dropping	-12.4107
▁apple	-12.4107
▁dishes	-12.4107
▁technology	-12.4108
boat	-12.4108
▁Oz	-12.4108
▁Grandpa	-12.4108
▁IMHO	-12.4108
▁mastectomy	-12.4108
▁Granted	-12.4108
▁HEAVY	-12.4108
▁bulging	-12.4109
▁realizing	-12.4109
▁dual	-12.4109
▁joy	-12.4109
▁Klein	-12.411
▁LENGTH	-12.411
▁Grandma	-12.411
▁34-32	-12.411
▁Fashion	-12.411
▁bomb	-12.4111
▁teal	-12.4111
▁Uncomfortable	-12.4111
kin	-12.4111
▁90%	-12.4112
▁Expensive	-12.4113
▁10-1/2	-12.4113
▁untied	-12.4114
▁responded	-12.4114
▁Classy	-12.4115
▁defeat	-12.4115
STOP	-12.4117
▁Sweatshirt	-12.4117
▁Natural	-12.4117
▁bay	-12.4119
▁beforehand	-12.4119
▁BIT	-12.4119
▁Follow	-12.412
ively	-12.412
▁confirmed	-12.4123
▁Marine	-12.4123
▁guaranteed	-12.4123
▁215	-12.4125
▁sky	-12.4127
▁5/5	-12.4128
▁XW	-12.4129
▁appealing	-12.413
▁union	-12.4131
▁underside	-12.4132
win	-12.4132
▁refused	-12.4133
▁shy	-12.4134
▁Years	-12.4137
▁sealed	-12.4141
▁peeled	-12.4143
▁backpacking	-12.4143
+++++	-12.4151
▁nerve	-12.4157
▁1.5""	-12.4157
AND	-12.416
▁researching	-12.4162
/36	-12.4171
▁hoops	-12.4179
▁pun	-12.4184
▁lu	-12.4186
sizing	-12.4188
▁Kohls	-12.4193
▁firmly	-12.4194
▁Thing	-12.4197
▁letters	-12.4199
▁worthless	-12.4201
▁phones	-12.4203
▁camel	-12.4204
Pros	-12.4204
▁Tevas	-12.4207
▁Reviews	-12.4207
▁oversize	-12.4213
▁comb	-12.4213
try	-12.4218
▁xx	-12.4218
▁sho	-12.4221
▁1/3	-12.4224
non	-12.423
▁Bi	-12.4234
▁dr	-12.4247
▁sin	-12.425
▁Laces	-12.4268
▁rubbery	-12.427
▁devices	-12.4276
▁mill	-12.4288
▁sum	-12.429
▁professionally	-12.4291
▁jog	-12.4291
▁clearing	-12.4293
▁sheets	-12.4293
▁mos	-12.4309
▁tap	-12.4312
▁san	-12.4313
▁plumbers	-12.4318
▁horses	-12.4325
▁lies	-12.4327
001	-12.433
ol	-12.433
▁toys	-12.4337
▁"5	-12.4342
▁Gu	-12.4356
▁grandsons	-12.436
ber	-12.4364
▁ge	-12.4387
play	-12.4387
rust	-12.4389
lic	-12.4399
▁tubes	-12.4411
FULL	-12.4417
loaded	-12.4431
gra	-12.4458
care	-12.446
▁Ver	-12.4473
▁negatives	-12.4482
ake	-12.4487
▁plane	-12.4494
48	-12.4497
Cant	-12.4506
▁distribute	-12.4506
▁bin	-12.4508
▁Review	-12.4515
▁Dur	-12.452
▁handed	-12.4527
▁$13	-12.4528
▁tra	-12.4543
▁winds	-12.455
▁Head	-12.4559
▁nun	-12.4559
Lo	-12.456
AA	-12.4561
slim	-12.4572
▁judg	-12.4585
▁wheel	-12.4587
NO	-12.4587
▁bars	-12.4594
vo	-12.46
7-8	-12.4601
▁9""	-12.461
▁pu	-12.4614
▁images	-12.4632
HY	-12.4632
▁pebble	-12.4638
▁10-	-12.4648
▁Sea	-12.4652
▁positions	-12.4662
▁recycl	-12.4686
hat	-12.4701
▁John	-12.4719
▁puddle	-12.4721
▁parent	-12.4724
▁letter	-12.4729
eak	-12.473
sizes	-12.473
▁mas	-12.4732
ONS	-12.4737
▁diet	-12.4738
step	-12.4741
cer	-12.4742
10-12	-12.4746
▁forty	-12.4753
-9	-12.4757
▁bough	-12.476
▁vo	-12.476
▁Sider	-12.477
▁EEE	-12.4772
ppy	-12.4773
Get	-12.4774
seem	-12.4774
never	-12.4775
▁prob	-12.4776
▁lab	-12.4776
face	-12.4788
▁adjuster	-12.479
aged	-12.4792
▁marking	-12.4798
fall	-12.4799
Dark	-12.4801
impact	-12.4801
[	-12.4801
Typical	-12.4801
From	-12.4801
Length	-12.4801
athletic	-12.4801
width	-12.4801
Kind	-12.4801
sturdy	-12.4801
actually	-12.4801
grey	-12.4801
flex	-12.4801
THEY	-12.4801
Does	-12.4801
Hard	-12.4801
wanted	-12.4802
Right	-12.4802
broken	-12.4802
nything	-12.4803
▁indicat	-12.4803
month	-12.4803
doesn	-12.4804
LOL	-12.4805
▁inspect	-12.4807
ifficult	-12.4807
etting	-12.4807
▁kayak	-12.4808
▁involve	-12.4808
avier	-12.4809
▁6'5	-12.481
▁stonewash	-12.481
▁Cloth	-12.4811
▁Total	-12.4811
▁tradition	-12.4812
▁Normal	-12.4813
llow	-12.4814
▁combine	-12.4814
▁droop	-12.4815
▁Part	-12.4815
▁freeze	-12.482
▁Face	-12.482
▁Woman	-12.482
▁encourage	-12.482
▁razor	-12.482
▁scrunch	-12.482
▁volunteer	-12.482
▁David	-12.482
▁Denim	-12.482
▁Galapagos	-12.482
▁LOOSE	-12.482
▁Maleficent	-12.482
▁Nonetheless	-12.482
▁Nylon	-12.482
▁Playtex	-12.482
▁SHIPPING	-12.482
▁SHORT	-12.482
▁Speed	-12.482
▁Stitching	-12.482
▁abrasion	-12.482
▁amusement	-12.482
▁bdu	-12.482
▁blade	-12.482
▁critical	-12.482
▁drink	-12.482
▁duplicate	-12.482
▁energy	-12.482
▁knowledge	-12.482
▁merchant	-12.482
▁misplaced	-12.482
▁patent	-12.482
▁praise	-12.482
▁remedy	-12.482
▁screwdriver	-12.482
▁storing	-12.482
▁strenuous	-12.482
▁friction	-12.482
▁spacious	-12.482
▁Furthermore	-12.482
▁soccer	-12.482
▁Caribbean	-12.4821
▁Lucky	-12.4821
▁caveat	-12.4821
▁contest	-12.4821
▁puppy	-12.4821
▁expired	-12.4821
▁forehead	-12.4821
▁arctic	-12.4821
▁naked	-12.4821
▁ANYONE	-12.4821
▁awsome	-12.4821
▁frigid	-12.4821
▁history	-12.4821
▁Brought	-12.4821
▁trimmed	-12.4821
▁Stacy	-12.4821
▁paratrooper	-12.4821
Moab	-12.4821
▁smartphone	-12.4821
▁midnight	-12.4821
▁rainbow	-12.4821
eriod	-12.4821
▁Asics	-12.4821
▁midsection	-12.4821
▁peac	-12.4821
▁gapping	-12.4821
▁heather	-12.4821
▁Headache	-12.4821
▁Jewelry	-12.4821
▁disposable	-12.4821
▁Hunt	-12.4822
▁vice	-12.4822
▁mailbox	-12.4822
▁Down	-12.4822
▁clearance	-12.4822
▁puffy	-12.4822
▁Mickey	-12.4823
▁Bonus	-12.4823
▁drug	-12.4823
▁enclosed	-12.4823
▁Cole	-12.4823
▁MENS	-12.4824
▁UN	-12.4824
▁6'8	-12.4824
▁TRY	-12.4824
▁splitting	-12.4824
▁Ladies	-12.4824
▁Recently	-12.4824
▁universal	-12.4824
▁borrowed	-12.4825
▁restricting	-12.4825
▁perky	-12.4825
▁proportioned	-12.4825
▁bucket	-12.4825
rray	-12.4825
▁THERE	-12.4825
▁34/32	-12.4825
▁canoeing	-12.4826
▁Hoodie	-12.4826
▁visually	-12.4826
▁outrageous	-12.4826
▁undo	-12.4827
▁ruler	-12.4827
▁EDIT	-12.4827
▁catches	-12.4828
▁dense	-12.4829
▁stolen	-12.4829
▁satin	-12.483
▁City	-12.483
▁dish	-12.483
▁Someone	-12.483
▁bootcut	-12.483
▁bonded	-12.483
due	-12.483
▁stiching	-12.483
▁chewed	-12.4831
▁laughed	-12.4831
▁Pack	-12.4832
▁PLUS	-12.4832
▁stabilicers	-12.4833
▁sling	-12.4833
▁Build	-12.4833
▁cable	-12.4833
▁minimizer	-12.4833
▁Around	-12.4835
▁brownish	-12.4836
▁hunter	-12.4839
▁WEARS	-12.484
Let	-12.4842
▁vendors	-12.4844
▁asphalt	-12.4847
▁parties	-12.4848
▁repeatedly	-12.4849
▁locked	-12.4853
▁server	-12.4854
▁aerobics	-12.4854
▁twigs	-12.4854
▁Typically	-12.4856
▁COME	-12.4856
▁wave	-12.4861
raw	-12.4863
▁rig	-12.4864
▁laundered	-12.4866
▁Thigh	-12.4866
▁striped	-12.4866
▁nuts	-12.4869
▁cinching	-12.487
▁Birki	-12.4871
eh	-12.4872
▁Chacos	-12.4876
▁BY	-12.4878
▁discounted	-12.4881
▁wh	-12.4881
cause	-12.4883
oke	-12.4889
pm	-12.4891
▁Easter	-12.4899
ative	-12.4899
▁concept	-12.4903
string	-12.491
Hey	-12.491
▁fi	-12.4911
▁painting	-12.4912
▁beads	-12.4915
▁agreed	-12.4918
▁lightest	-12.4918
▁compress	-12.4919
▁24""	-12.4919
▁border	-12.4922
row	-12.4939
▁lumps	-12.4944
▁specially	-12.4945
▁testing	-12.4949
TH	-12.4956
rry	-12.496
ops	-12.4968
▁rags	-12.4968
▁wearability	-12.4969
wel	-12.4971
▁twins	-12.4974
▁$45	-12.4974
▁br	-12.4985
▁$16	-12.4991
ola	-12.4995
▁Buil	-12.5
▁receipts	-12.5004
▁MODE	-12.5005
▁fatigues	-12.5011
ged	-12.5017
▁characters	-12.5019
▁laugh	-12.5026
term	-12.5033
▁essentials	-12.5049
32)	-12.5069
▁"2	-12.5074
alo	-12.5077
▁bulges	-12.5079
▁clasped	-12.5079
AVE	-12.5084
▁Rock	-12.5085
▁Mai	-12.5103
ament	-12.5103
▁2014.	-12.5107
▁bur	-12.511
2/	-12.5113
AAAAA	-12.5118
▁tasks	-12.5133
▁MAN	-12.5138
▁performs	-12.5144
▁ta	-12.5146
ALL	-12.5153
▁8""	-12.5158
▁41	-12.5162
▁starter	-12.5162
▁swapp	-12.5168
sung	-12.5181
▁Sp	-12.5185
bar	-12.5199
▁meat	-12.5207
TY	-12.5216
0#	-12.5224
▁costly	-12.5225
▁CO	-12.5229
ow	-12.5231
GG	-12.5237
▁Tru	-12.5244
unk	-12.5249
▁fri	-12.5265
▁2005	-12.5287
▁coated	-12.5299
acy	-12.5305
▁guessed	-12.5315
arch	-12.5328
▁trucks	-12.5333
▁War	-12.5333
30)	-12.5336
▁HER	-12.5338
▁ri	-12.5346
▁skipp	-12.5352
▁EN	-12.5364
Re	-12.5381
▁Fe	-12.5383
verse	-12.5383
ears	-12.5389
cha	-12.5393
OOL	-12.5401
▁glows	-12.5403
HING	-12.5417
ced	-12.5421
Thin	-12.5428
ssing	-12.5434
ET	-12.5435
▁str	-12.5455
▁notes	-12.5468
▁wonders	-12.5468
▁disappear	-12.5476
▁Bit	-12.5477
▁sneak	-12.5489
▁Kohl	-12.549
▁rivet	-12.5491
▁Brief	-12.5492
▁complement	-12.5493
▁skate	-12.5496
▁Topsider	-12.5497
▁hiker	-12.5508
▁TR	-12.5515
▁esta	-12.5516
▁bound	-12.5517
vention	-12.553
▁dates	-12.5535
gger	-12.5535
▁ending	-12.5541
▁hr	-12.555
▁($	-12.5556
fashion	-12.5558
truct	-12.5561
▁COM	-12.5566
heel	-12.5567
natural	-12.5568
▁Dec	-12.5569
Loose	-12.5569
ttle	-12.5569
Saucony	-12.557
power	-12.557
Beware	-12.557
Medium	-12.557
Actually	-12.557
pregnancy	-12.557
Usually	-12.557
constructed	-12.557
classic	-12.557
bottom	-12.557
exchange	-12.557
baggy	-12.557
Rugged	-12.557
hiking	-12.557
Cool	-12.5571
deep	-12.5571
something	-12.5572
mark	-12.5573
Back	-12.5573
button	-12.5576
gray	-12.5577
▁5'9	-12.5577
Much	-12.5578
cle	-12.5579
▁discreet	-12.5579
?????	-12.558
▁chew	-12.5581
than	-12.5585
▁showers	-12.5586
▁figur	-12.5586
▁RUN	-12.5587
igital	-12.5589
▁Boston	-12.559
▁ADORABLE	-12.559
▁ASAP	-12.559
▁Affordable	-12.559
▁BRAND	-12.559
▁Battery	-12.559
▁Blood	-12.559
▁Brother	-12.559
▁Clutch	-12.559
▁Diamond	-12.559
▁FAVORITE	-12.559
▁JACKET	-12.559
▁Literally	-12.559
▁Naturalizer	-12.559
▁Polyester	-12.559
▁Reliable	-12.559
▁SIZING	-12.559
▁SUPPORT	-12.559
▁SmartWool	-12.559
▁WALLET	-12.559
▁attribute	-12.559
▁currency	-12.559
▁damaging	-12.559
▁ergonomic	-12.559
▁festival	-12.559
▁fragrance	-12.559
▁jeggings	-12.559
▁jockey	-12.559
▁language	-12.559
▁nostalgia	-12.559
▁outweigh	-12.559
▁shield	-12.559
▁spouse	-12.559
▁stories	-12.559
▁taught	-12.559
▁torpedo	-12.559
▁wedgie	-12.559
▁wheelchair	-12.559
▁ACTUAL	-12.559
▁FAKE	-12.559
▁favourite	-12.559
▁kindergarten	-12.559
▁tux	-12.559
conventional	-12.559
▁surplus	-12.559
▁nightmare	-12.559
▁reddish	-12.559
Madonna	-12.559
▁Valentine	-12.559
▁begun	-12.559
▁microfiber	-12.559
▁lifesaver	-12.559
▁balloon	-12.559
▁2/3	-12.559
▁dangerous	-12.559
▁drab	-12.559
▁vivid	-12.559
▁ratty	-12.559
▁responsible	-12.559
HOSE	-12.559
▁Orange	-12.559
▁lemon	-12.559
▁casing	-12.559
▁WRONG	-12.559
stubbing	-12.559
▁scarves	-12.559
▁retirement	-12.559
▁jumpsuit	-12.559
▁nike	-12.559
▁1980	-12.559
▁assort	-12.559
▁1970	-12.559
▁compra	-12.559
▁$18	-12.559
▁pleats	-12.559
▁porch	-12.559
▁automatic	-12.559
▁role	-12.5591
▁noticing	-12.5591
▁COTTON	-12.5591
▁Charcoal	-12.5591
▁spectacular	-12.5591
▁START	-12.5591
▁characteristic	-12.5591
▁prolong	-12.5591
▁transport	-12.5591
▁blazer	-12.5591
▁sunny	-12.5591
▁Jet	-12.5591
▁skater	-12.5591
▁PLEASED	-12.5591
▁2009	-12.5591
▁unnatural	-12.5592
▁STARS	-12.5592
▁stopping	-12.5592
▁36-38	-12.5592
▁embarrassed	-12.5592
▁Kap	-12.5592
▁Nubuck	-12.5592
▁Ridiculous	-12.5592
▁feather	-12.5592
ttendant	-12.5592
▁Awful	-12.5592
▁message	-12.5593
▁Polo	-12.5593
▁paperwork	-12.5593
▁freezer	-12.5593
▁bearable	-12.5593
▁property	-12.5593
▁elasticized	-12.5593
▁32-34	-12.5593
▁hue	-12.5594
▁CONVERSE	-12.5594
▁repellant	-12.5594
▁Replacement	-12.5594
▁basement	-12.5594
▁Box	-12.5595
▁milk	-12.5595
▁recovery	-12.5595
▁coast	-12.5595
▁Bigger	-12.5595
Weather	-12.5596
▁Thus	-12.5596
blew	-12.5597
▁Throw	-12.5597
▁venture	-12.5597
▁Field	-12.5597
highly	-12.5597
▁pouches	-12.5597
▁Stone	-12.5598
▁mission	-12.5598
▁Gray	-12.5598
▁smashed	-12.5598
Jeans	-12.5598
▁satisfaction	-12.5599
▁Park	-12.5599
▁youngest	-12.5599
drying	-12.56
▁Serve	-12.5601
▁distracting	-12.5601
Your	-12.5601
▁Buff	-12.5602
▁Jerzees	-12.5602
▁Sterling	-12.5602
▁TV	-12.5603
▁ruggedness	-12.5603
▁PAIRS	-12.5604
▁Arm	-12.5604
▁inflated	-12.5605
▁Grey	-12.5605
▁relieve	-12.5606
cold	-12.5606
▁considerable	-12.5608
think	-12.5608
▁bathing	-12.5609
▁Weight	-12.561
ack	-12.561
▁Beat	-12.5611
▁Cold	-12.5612
▁express	-12.5616
▁operation	-12.5617
▁icon	-12.5617
resent	-12.5618
▁automotive	-12.5618
▁increased	-12.5619
/10	-12.5619
▁3/4""	-12.5621
46	-12.5625
▁nu	-12.5626
▁painless	-12.5628
▁98	-12.563
▁DC	-12.5632
▁NOTE	-12.5633
▁fuss	-12.5637
girls	-12.5639
▁expanded	-12.5639
▁ro	-12.564
▁busty	-12.5642
▁Yea	-12.5642
▁competitors	-12.5642
chasing	-12.5642
▁behold	-12.5645
▁dro	-12.5651
SO	-12.5652
▁fastening	-12.566
▁core	-12.5661
▁jewel	-12.5663
▁upright	-12.5664
▁conditioner	-12.5664
▁hitch	-12.5666
▁dyed	-12.5666
▁Pick	-12.5671
▁bitter	-12.5678
py	-12.5678
▁plea	-12.5678
▁papers	-12.5679
80	-12.5681
▁attempted	-12.5682
▁sparkles	-12.5683
Active	-12.5683
▁digits	-12.5684
▁hikers	-12.5692
▁customize	-12.57
▁mass	-12.5705
1""	-12.5706
▁coworkers	-12.5707
ral	-12.5708
▁8)	-12.571
▁posting	-12.5711
▁crossing	-12.5712
▁taped	-12.5713
▁textured	-12.5713
▁clouds	-12.5723
▁62	-12.5724
▁sucker	-12.5725
▁creased	-12.5732
▁limits	-12.5748
▁attachments	-12.5756
▁butter	-12.5761
▁Skamps	-12.5764
▁rules	-12.5772
▁ot	-12.5777
cro	-12.5782
EAT	-12.5783
▁springs	-12.5784
stepped	-12.5789
cky	-12.5791
:30	-12.5792
▁tri	-12.5798
▁Lov	-12.5798
▁flu	-12.5802
▁plants	-12.5806
▁career	-12.5808
tty	-12.5816
35	-12.5816
ute	-12.5828
▁flights	-12.5829
▁cats	-12.5838
▁winding	-12.5847
▁Tees	-12.5848
▁bottles	-12.5854
ouch	-12.5854
Somehow	-12.5855
▁warnings	-12.5862
▁sing	-12.5865
AME	-12.5878
▁Womens	-12.5884
umb	-12.5886
▁cones	-12.5896
ada	-12.5901
▁retains	-12.5904
▁sooooo	-12.5911
▁SC	-12.5913
TM	-12.5917
-15	-12.5918
▁ju	-12.5922
gp	-12.5924
▁needless	-12.5925
ations	-12.5951
hipped	-12.5953
▁EM	-12.5964
▁player	-12.5966
▁Va	-12.597
▁Nikes	-12.5999
▁197	-12.6012
▁bug	-12.6017
▁names	-12.6018
Star	-12.6023
ado	-12.6042
▁Chang	-12.6064
here	-12.607
▁efforts	-12.607
32""	-12.6076
▁ratio	-12.6084
▁worthy	-12.6102
roll	-12.6102
ENT	-12.6106
Outside	-12.6108
▁nub	-12.611
▁corrected	-12.6116
37	-12.6122
▁strike	-12.6125
ev	-12.6129
ement	-12.6132
ham	-12.6142
glo	-12.6146
▁rivers	-12.6146
Kate	-12.6151
▁Ru	-12.6154
5.5	-12.617
▁Measure	-12.618
qua	-12.6181
hn	-12.6183
rino	-12.6183
ONE	-12.6187
▁Jo	-12.6188
chilles	-12.6189
clean	-12.619
▁SEE	-12.6194
TELY	-12.6196
▁cargos	-12.62
▁weighted	-12.6204
fu	-12.6208
▁delight	-12.6213
▁12""	-12.6217
purchased	-12.6221
▁86	-12.6223
▁downsides	-12.624
ov	-12.6245
▁bead	-12.6257
????	-12.6258
ella	-12.6265
▁Pre	-12.6269
cent	-12.6272
▁shi	-12.6281
▁bunche	-12.6286
▁COULD	-12.629
▁enhance	-12.6291
pper	-12.6291
▁SW	-12.6294
ense	-12.6294
aded	-12.6297
agged	-12.6297
▁Reorder	-12.6306
DO	-12.6311
how	-12.6315
▁sparkle	-12.6323
▁pajama	-12.6325
▁alteration	-12.6325
▁court	-12.6325
▁horn	-12.6325
▁indoor	-12.6326
▁cleat	-12.6327
tery	-12.6328
▁sandle	-12.633
dded	-12.6334
▁digit	-12.6335
▁East	-12.6337
Up	-12.6341
▁cha	-12.6348
▁afterward	-12.6353
▁anticipat	-12.6365
RS	-12.6385
▁dive	-12.6385
▁ratings	-12.6387
purchase	-12.6388
▁evenings	-12.6389
cover	-12.6396
▁overheat	-12.6398
▁Perfecto	-12.64
layer	-12.6402
yard	-12.6403
Sleeve	-12.6403
Boy	-12.6403
Free	-12.6403
poly	-12.6403
state	-12.6403
Daughter	-12.6403
Glad	-12.6403
check	-12.6403
knee	-12.6403
plastic	-12.6403
worth	-12.6403
Better	-12.6403
barefoot	-12.6403
bust	-12.6403
▁WOMEN	-12.6404
okay	-12.6404
sorry	-12.6404
until	-12.6405
least	-12.6405
▁reache	-12.6405
grain	-12.6406
inimal	-12.6408
range	-12.6408
▁diff	-12.6409
▁scream	-12.641
▁confuse	-12.6411
▁haul	-12.6411
▁reinforce	-12.6411
magine	-12.6411
▁stamp	-12.6412
Big	-12.6414
▁fad	-12.6414
▁bond	-12.6415
▁numb	-12.642
▁jam	-12.6421
▁import	-12.6421
ephew	-12.6423
alaxy	-12.6423
▁fue	-12.6423
▁observ	-12.6423
▁urge	-12.6423
▁COMFORT	-12.6423
▁apprehensi	-12.6423
▁DURABLE	-12.6423
▁monitor	-12.6423
▁symbol	-12.6423
▁Academy	-12.6423
▁Breathable	-12.6423
▁Carolina	-12.6423
▁Energy	-12.6423
▁Freya	-12.6423
▁Italian	-12.6423
▁Minnie	-12.6423
▁Mountain	-12.6423
▁Oregon	-12.6423
▁Rubber	-12.6423
▁Sweet	-12.6423
▁Thailand	-12.6423
▁Thomas	-12.6423
▁bridge	-12.6423
▁carrier	-12.6423
▁charging	-12.6423
▁composition	-12.6423
▁criteria	-12.6423
▁elegance	-12.6423
▁false	-12.6423
▁famous	-12.6423
▁furniture	-12.6423
▁garnet	-12.6423
▁groomsmen	-12.6423
▁guitar	-12.6423
▁hazard	-12.6423
▁hesitation	-12.6423
▁holster	-12.6423
▁invoice	-12.6423
▁jealous	-12.6423
▁miserable	-12.6423
▁modification	-12.6423
▁navel	-12.6423
▁overflow	-12.6423
▁patience	-12.6423
▁premium	-12.6423
▁prettiest	-12.6423
▁reliably	-12.6423
▁residu	-12.6423
▁technique	-12.6423
▁temporary	-12.6423
▁traffic	-12.6423
▁unpredictable	-12.6423
▁veteran	-12.6423
▁volume	-12.6423
▁wreck	-12.6423
▁wrinkly	-12.6423
▁Henley	-12.6423
▁anxious	-12.6423
▁puncture	-12.6423
▁reef	-12.6423
▁Thumb	-12.6423
▁catalog	-12.6423
▁duct	-12.6423
▁confining	-12.6423
▁graduation	-12.6423
▁bunny	-12.6423
▁podiatrist	-12.6423
▁pkg	-12.6423
▁torture	-12.6423
▁dramatically	-12.6423
▁membership	-12.6423
▁alignment	-12.6423
▁automatically	-12.6423
boy	-12.6423
▁adhere	-12.6423
▁99%	-12.6423
▁Footwear	-12.6423
▁Suggest	-12.6423
▁mature	-12.6423
▁spillage	-12.6424
▁USPS	-12.6424
▁$17	-12.6424
▁French	-12.6424
▁detachable	-12.6424
▁wedge	-12.6424
▁born	-12.6424
rring	-12.6424
▁cease	-12.6424
▁acid	-12.6424
▁crossbody	-12.6424
▁Week	-12.6424
▁Mario	-12.6424
▁PLEASE	-12.6424
▁Rockport	-12.6424
▁RECOMMENDED	-12.6424
▁alcohol	-12.6424
▁CORRECT	-12.6424
▁Smartwool	-12.6424
▁CARHARTT	-12.6424
▁injured	-12.6424
▁Penny	-12.6424
▁rigor	-12.6425
▁ballet	-12.6425
▁2008	-12.6425
▁gripping	-12.6425
▁trainers	-12.6425
▁pricy	-12.6425
▁lame	-12.6425
▁strand	-12.6425
▁shelves	-12.6425
▁Kindle	-12.6426
▁Dansko	-12.6426
▁FINALLY	-12.6426
▁quest	-12.6426
▁excuse	-12.6426
▁Bass	-12.6426
▁snugged	-12.6426
▁BUYING	-12.6426
▁starch	-12.6427
▁Treat	-12.6427
▁remarkable	-12.6427
▁nearby	-12.6427
▁Paul	-12.6427
▁lend	-12.6427
▁Generally	-12.6427
▁maxi	-12.6427
needed	-12.6427
▁coffee	-12.6428
▁Correct	-12.6428
▁Skechers	-12.6428
▁Fix	-12.6428
▁flair	-12.6428
▁sparkly	-12.6428
▁fortunately	-12.6429
▁tim	-12.6429
▁cabinet	-12.6429
▁tripping	-12.643
▁JC	-12.643
▁tax	-12.643
▁allot	-12.643
▁Party	-12.643
▁droopy	-12.643
▁starchy	-12.6431
▁81/2	-12.6431
pad	-12.6431
▁airline	-12.6431
urb	-12.6431
▁detached	-12.6431
▁kiddo	-12.6432
▁36/30	-12.6432
▁pickup	-12.6432
▁Glove	-12.6432
▁vented	-12.6432
▁34/30	-12.6433
▁score	-12.6433
▁READ	-12.6433
▁Sally	-12.6433
▁Camel	-12.6434
▁Fell	-12.6435
▁Miss	-12.6435
▁Dressy	-12.6435
▁disappeared	-12.6435
▁205	-12.6436
▁swing	-12.6436
▁moccasins	-12.6436
▁Giv	-12.6437
▁hollow	-12.6437
▁bandaid	-12.6438
▁hotter	-12.6438
▁shore	-12.6438
▁whim	-12.6438
▁hugging	-12.6439
▁spilled	-12.6439
soled	-12.644
▁Wall	-12.6441
▁Bright	-12.6441
▁connected	-12.6441
vious	-12.6443
▁2000	-12.6444
▁fluctuate	-12.6444
▁jamm	-12.6445
▁fingernails	-12.6445
▁dime	-12.6445
▁115	-12.6446
▁ONES	-12.6447
▁Covers	-12.6448
▁feeding	-12.6449
.25""	-12.6449
▁beaten	-12.6449
▁affected	-12.6452
▁superman	-12.6453
ism	-12.6455
gar	-12.6456
IGHT	-12.6456
▁tucks	-12.6458
▁grader	-12.6459
▁idiot	-12.6461
nte	-12.6465
▁darned	-12.6466
▁CON	-12.6466
▁toast	-12.6466
▁applying	-12.6469
▁colorfast	-12.6473
bone	-12.6473
▁acrylic	-12.6475
▁definetl	-12.6481
▁detailed	-12.6481
/29	-12.6482
▁graphics	-12.6489
▁slap	-12.649
were	-12.6492
Quilted	-12.6492
▁expanding	-12.6493
▁daylight	-12.6493
▁recover	-12.6497
▁switching	-12.6501
▁blocking	-12.6505
▁legitimate	-12.6505
▁Secondly	-12.6506
▁elbows	-12.6507
▁vehicles	-12.6507
▁Pricey	-12.6509
mom	-12.6511
ction	-12.6519
seems	-12.6522
▁faced	-12.6523
▁seek	-12.6524
▁earn	-12.6528
going	-12.653
▁tightening	-12.6531
▁gum	-12.6536
▁mash	-12.6539
wing	-12.6539
▁THe	-12.6541
workers	-12.6544
▁creeks	-12.6551
-50	-12.6559
▁shred	-12.6561
▁hav	-12.6561
▁walker	-12.6562
▁song	-12.657
ild	-12.6578
▁mins	-12.658
hrs	-12.658
▁Ah	-12.6584
▁nightgowns	-12.6586
▁connects	-12.6587
▁Per	-12.6589
Bermuda	-12.6593
▁hero	-12.6594
iate	-12.6603
▁presents	-12.6606
▁cav	-12.6608
▁ste	-12.6612
▁sl	-12.6615
Oh	-12.6623
▁(12	-12.6624
UP	-12.6637
▁camisoles	-12.664
▁videos	-12.6649
▁formed	-12.6652
▁lesser	-12.6659
▁achilles	-12.6663
▁touching	-12.6669
▁Ne	-12.6675
▁Ash	-12.6681
▁Show	-12.6684
▁slider	-12.6686
alk	-12.6687
EST	-12.6698
eg	-12.6701
▁din	-12.6702
▁CH	-12.6705
▁San	-12.6709
Tight	-12.6712
▁mon	-12.6734
SIDE	-12.6735
flat	-12.6757
▁stinks	-12.6785
▁Los	-12.6801
▁bandage	-12.6817
sel	-12.6849
▁HA	-12.6853
▁heading	-12.6859
▁dealer	-12.6862
lvin	-12.687
bble	-12.6879
▁sw	-12.6886
▁upgrad	-12.6886
OVE	-12.6911
▁Travel	-12.6922
ker	-12.6948
lty	-12.695
WW	-12.6965
▁movements	-12.6973
▁comf	-12.6976
abil	-12.699
ari	-12.6994
▁widen	-12.6995
▁Pr	-12.7
▁cinchers	-12.7006
▁$29	-12.7006
▁drip	-12.7006
▁slope	-12.7006
▁dated	-12.7009
▁Hate	-12.7016
▁Woo	-12.7032
▁eco	-12.704
▁$14	-12.704
▁mechanics	-12.7041
verage	-12.7062
▁flips	-12.7062
▁thr	-12.7064
built	-12.7066
ryp	-12.7074
▁Ben	-12.7084
▁Pat	-12.709
▁mor	-12.7096
ended	-12.7102
nda	-12.7104
uk	-12.7107
eye	-12.7123
uy	-12.7125
por	-12.7142
AAAA	-12.7145
ION	-12.7146
intentionally	-12.7146
▁mart	-12.7154
▁priceless	-12.7162
▁Fl	-12.7165
▁ru	-12.7168
▁suggests	-12.7176
nk	-12.7182
▁levels	-12.719
▁Han	-12.7199
▁Off	-12.7208
Boot	-12.7212
Top	-12.7215
Dickie	-12.7216
▁Bri	-12.722
second	-12.722
hrunk	-12.7229
▁thousand	-12.7231
▁92	-12.7232
▁hoop	-12.7233
▁employee	-12.7234
▁eyelet	-12.7236
oxy	-12.7236
▁alway	-12.7237
ony	-12.7243
▁shoelace	-12.7255
▁dose	-12.7259
▁sigh	-12.7264
▁uplift	-12.7266
▁tha	-12.7275
▁skateboard	-12.7275
sweat	-12.7277
lide	-12.7278
Liner	-12.7284
SU	-12.7285
ki	-12.7288
Need	-12.7302
▁outline	-12.7304
▁Superb	-12.7306
La	-12.731
known	-12.7311
▁surviv	-12.7311
comfort	-12.7311
Genuine	-12.7312
Simply	-12.7312
@	-12.7312
Grandson	-12.7312
polyester	-12.7312
nylon	-12.7312
fabric	-12.7312
Belt	-12.7313
including	-12.7314
Strap	-12.7314
orange	-12.7314
Old	-12.7314
THIS	-12.7314
tube	-12.7314
stay	-12.7315
Doesn	-12.7316
guess	-12.7317
▁surf	-12.7318
▁coordinate	-12.7319
May	-12.7319
▁respond	-12.7319
▁extensive	-12.7322
▁ultimate	-12.7322
▁continuous	-12.7322
▁Actual	-12.7322
▁immediate	-12.7323
▁Essential	-12.7324
▁successful	-12.7326
▁Wonder	-12.7326
▁ragged	-12.7326
Now	-12.7327
▁cush	-12.7328
▁Africa	-12.7329
▁Ideal	-12.7329
▁stole	-12.733
▁CHANGE	-12.733
▁Sharp	-12.7332
▁shadow	-12.7332
▁spider	-12.7332
ecipient	-12.7332
▁LEG	-12.7332
UCK	-12.7332
}	-12.7332
▁Omega	-12.7332
▁Rolex	-12.7332
▁blizzard	-12.7332
▁centimeter	-12.7332
▁employer	-12.7332
▁explanation	-12.7332
▁postpartum	-12.7332
▁triangle	-12.7332
▁ANYTHING	-12.7332
▁Adams	-12.7332
▁Banana	-12.7332
▁DEFIN	-12.7332
▁EXCEPT	-12.7332
▁FUN	-12.7332
▁Fossil	-12.7332
▁INDIGLO	-12.7332
▁Motion	-12.7332
▁NARROW	-12.7332
▁ORIGINAL	-12.7332
▁Remind	-12.7332
▁SAID	-12.7332
▁STIFF	-12.7332
▁Thermasilk	-12.7332
▁Thursday	-12.7332
▁WAIST	-12.7332
▁achieve	-12.7332
▁artificial	-12.7332
▁bamboo	-12.7332
▁brilliant	-12.7332
▁clumsy	-12.7332
▁conclusion	-12.7332
▁esperaba	-12.7332
▁experiment	-12.7332
▁glare	-12.7332
▁international	-12.7332
▁lousy	-12.7332
▁luxury	-12.7332
▁magazine	-12.7332
▁mixture	-12.7332
▁modify	-12.7332
▁remedied	-12.7332
▁snorkeling	-12.7332
▁snowboarding	-12.7332
▁strangl	-12.7332
▁umbrella	-12.7332
▁vigorous	-12.7332
▁Crocs	-12.7332
▁quote	-12.7332
▁shredded	-12.7332
▁Certain	-12.7332
▁Lady	-12.7332
▁decorative	-12.7332
▁facility	-12.7332
▁notorious	-12.7332
▁tolerable	-12.7332
▁Harley	-12.7332
▁motor	-12.7332
▁trigger	-12.7332
▁4/5	-12.7332
▁sequin	-12.7332
▁Google	-12.7332
▁serving	-12.7332
▁grandchildren	-12.7332
▁stride	-12.7332
▁specify	-12.7332
▁Fantasie	-12.7332
▁recomendado	-12.7332
▁jetpack	-12.7332
Vintage	-12.7332
▁specifications	-12.7332
▁turtleneck	-12.7332
▁Bates	-12.7332
▁aviators	-12.7332
▁Washington	-12.7332
enerous	-12.7332
▁reattach	-12.7333
▁zone	-12.7333
▁flashlight	-12.7333
▁limp	-12.7333
▁USUAL	-12.7333
▁WASTE	-12.7333
▁cabin	-12.7333
▁SAY	-12.7333
llen	-12.7333
▁diving	-12.7333
▁text	-12.7333
▁1950	-12.7333
▁observation	-12.7333
▁portable	-12.7333
▁Mike	-12.7333
▁<3	-12.7333
▁LINE	-12.7333
▁Kswiss	-12.7334
▁tanned	-12.7334
▁peach	-12.7334
▁cock	-12.7334
▁Dickes	-12.7334
▁pond	-12.7334
▁eleven	-12.7334
▁tub	-12.7334
been	-12.7334
▁connector	-12.7335
▁Metal	-12.7335
▁aching	-12.7335
▁instructed	-12.7335
▁outerwear	-12.7335
▁dunno	-12.7335
▁Fresh	-12.7335
▁Power	-12.7335
▁Uniform	-12.7335
▁safari	-12.7335
▁locket	-12.7335
▁38-40	-12.7335
▁TALL	-12.7336
▁forearm	-12.7336
▁embroidery	-12.7336
▁THING	-12.7336
▁unworn	-12.7336
Bra	-12.7337
▁kaki	-12.7337
▁unhooked	-12.7337
▁lip	-12.7337
▁Kenn	-12.7337
0/50	-12.7337
▁1/8	-12.7337
▁chaffing	-12.7338
▁overlooked	-12.7338
▁beast	-12.7338
▁bday	-12.7338
▁bless	-12.7338
▁throwback	-12.7339
▁Description	-12.7339
▁Gorgeous	-12.7339
▁Titanium	-12.7339
▁Inexpensive	-12.7339
▁zoo	-12.7339
▁nickel	-12.7339
▁joint	-12.7339
▁format	-12.734
▁cake	-12.734
▁NE	-12.734
▁encountered	-12.734
▁LIGHT	-12.734
ntal	-12.7341
▁endowed	-12.7341
▁Capri	-12.7341
▁2003	-12.7342
▁bracket	-12.7342
▁successfully	-12.7342
▁scare	-12.7343
▁demanding	-12.7343
▁overlap	-12.7343
8&	-12.7343
▁locker	-12.7344
▁golden	-12.7345
▁imported	-12.7345
▁earned	-12.7345
▁branch	-12.7345
▁approach	-12.7345
spacing	-12.7345
▁rapidly	-12.7346
Highly	-12.7346
▁PLE	-12.7348
IVED	-12.7348
▁funk	-12.7349
mostly	-12.7349
▁VS	-12.7349
▁routinely	-12.735
▁Thicker	-12.735
▁Meet	-12.735
▁Packaged	-12.7351
▁shove	-12.7352
ould	-12.7352
umbers	-12.7353
▁safer	-12.7354
cost	-12.7357
▁shooting	-12.7357
▁fooled	-12.7357
▁excessively	-12.7358
▁fixes	-12.7359
▁toilet	-12.7359
rip	-12.7362
▁Defin	-12.7363
▁sufficiently	-12.7365
▁assure	-12.7365
washing	-12.7368
▁foundation	-12.7368
▁rinsed	-12.7368
▁nick	-12.7369
▁SIZES	-12.7369
▁swiss	-12.7369
▁sha	-12.737
▁laceless	-12.7371
▁SF	-12.7371
Wash	-12.7373
▁toughest	-12.7374
▁retained	-12.7375
▁105	-12.7375
▁toenails	-12.7376
▁booties	-12.7377
▁hay	-12.7378
▁(40	-12.7379
▁dungarees	-12.7379
▁tarp	-12.7379
▁homeless	-12.7381
▁Panty	-12.7381
▁mistaken	-12.7383
▁twisting	-12.7384
▁roller	-12.7387
▁shave	-12.7388
▁pointless	-12.7392
▁exc	-12.7393
▁strangers	-12.7396
▁Tims	-12.7397
many	-12.7399
▁shear	-12.7406
-18	-12.7407
▁prize	-12.7407
▁Point	-12.7408
▁awkwardly	-12.741
Boots	-12.7414
▁failing	-12.7416
▁37""	-12.7417
▁Prop	-12.742
▁hearing	-12.7422
▁5+	-12.7427
▁officer	-12.7428
sider	-12.743
case	-12.7432
▁SOOOO	-12.7436
45	-12.7436
mph	-12.7437
▁centered	-12.7445
▁hubs	-12.7445
▁como	-12.7446
nsulated	-12.7448
▁Briefs	-12.7453
▁Aid	-12.7455
▁swi	-12.7459
war	-12.746
much	-12.7463
▁artist	-12.7464
▁finest	-12.7465
hot	-12.7466
▁ja	-12.7469
▁informal	-12.7471
▁pushe	-12.7471
zed	-12.7472
▁liquids	-12.7473
uti	-12.7482
anti	-12.7483
▁king	-12.7483
▁laps	-12.7484
make	-12.7489
▁concerts	-12.7492
▁Birkenstocks	-12.7492
▁travels	-12.7494
rite	-12.7495
▁inserted	-12.7501
▁Toms	-12.7502
having	-12.7511
▁Met	-12.7516
coat	-12.752
▁bat	-12.7523
▁spa	-12.7538
HA	-12.7546
▁promises	-12.7551
▁hardy	-12.7554
▁Mostly	-12.7554
▁Word	-12.7555
▁fella	-12.7558
▁shaper	-12.7558
tish	-12.756
-12	-12.7564
▁loosening	-12.7565
▁understanding	-12.7569
9.99	-12.7575
▁AE	-12.7576
▁expos	-12.7578
▁Str	-12.7592
▁lakes	-12.7593
specialty	-12.7593
lets	-12.7599
▁rage	-12.76
▁caps	-12.7602
▁Ten	-12.7603
odd	-12.7606
cell	-12.7606
▁inward	-12.761
▁ships	-12.7611
▁cheapen	-12.7619
▁corsets	-12.762
▁impressions	-12.762
▁cam	-12.7621
runs	-12.7624
▁Buck	-12.7624
▁interfere	-12.7627
▁sustainabl	-12.7635
▁labeling	-12.7641
▁Sit	-12.7646
illed	-12.7656
logged	-12.7662
▁Non	-12.7672
▁tinge	-12.768
▁Keene	-12.7682
▁Date	-12.7683
▁excepted	-12.7686
▁Ed	-12.7692
▁knots	-12.7699
HEIR	-12.7704
LESS	-12.771
▁Pan	-12.7711
▁tricks	-12.7712
referred	-12.7738
▁280	-12.7739
rest	-12.7746
▁hugg	-12.7754
▁todo	-12.7765
▁0.5	-12.7767
ACE	-12.7777
tle	-12.7778
▁pur	-12.7782
▁um	-12.7785
ike	-12.78
▁carharts	-12.7803
rmal	-12.7805
▁BDUs	-12.781
3""	-12.7817
▁snip	-12.782
▁payed	-12.7825
▁qu	-12.7827
▁alive	-12.7833
▁tracks	-12.7834
wet	-12.7837
clear	-12.7855
▁Wa	-12.7856
FF	-12.786
pill	-12.7861
▁follows	-12.7862
ina	-12.7862
)...	-12.7877
pped	-12.788
▁198	-12.7881
▁definit	-12.7896
▁waiste	-12.79
gh	-12.7918
ko	-12.7927
ids	-12.7934
▁Matche	-12.7941
marked	-12.7956
ading	-12.7979
special	-12.7987
▁sustain	-12.8007
▁whatnot	-12.801
avi	-12.8023
ington	-12.8043
▁rode	-12.8051
ected	-12.8051
▁$90	-12.806
str	-12.8071
▁assist	-12.8073
▁grat	-12.8085
NT	-12.8085
▁prints	-12.8088
oa	-12.8108
▁cared	-12.8117
▁siz	-12.813
▁fa	-12.8146
▁lighten	-12.8154
gged	-12.8159
▁shapely	-12.8167
▁51	-12.8184
▁je	-12.8187
▁distribut	-12.8188
▁sal	-12.819
cious	-12.8192
▁$150	-12.8195
0$	-12.8197
jean	-12.8215
expensive	-12.8216
seam	-12.8216
Pleated	-12.8222
▁aesthetic	-12.8224
lace	-12.8225
▁tropic	-12.823
▁elbow	-12.8232
▁vehicle	-12.8232
▁armpit	-12.8234
▁element	-12.8235
▁reflection	-12.8235
▁budge	-12.8236
called	-12.8262
sew	-12.8266
ption	-12.827
aaa	-12.8285
possibly	-12.8287
div	-12.8291
▁tact	-12.8292
lity	-12.8294
▁Justins	-12.8303
▁pantie	-12.8304
WAY	-12.8307
▁interest	-12.8308
while	-12.8309
▁Soooo	-12.8309
issue	-12.831
construction	-12.8311
Comfort	-12.8311
Sneaker	-12.8311
existent	-12.8311
Follow	-12.8312
Blue	-12.8312
Newport	-12.8312
White	-12.8312
Horrible	-12.8312
Hot	-12.8312
Already	-12.8312
Outstanding	-12.8312
Relaxed	-12.8312
appear	-12.8312
beige	-12.8312
mentioned	-12.8312
Happy	-12.8312
purse	-12.8312
amazing	-12.8312
silver	-12.8312
woman	-12.8312
life	-12.8312
beautiful	-12.8312
elastic	-12.8312
wrong	-12.8313
packaged	-12.8313
KEEN	-12.8313
wallet	-12.8313
zero	-12.8313
New	-12.8313
otherwise	-12.8313
belly	-12.8313
▁beds	-12.8313
American	-12.8314
Take	-12.8314
compared	-12.8315
▁requir	-12.8316
found	-12.8317
▁cooling	-12.8319
loop	-12.8321
▁smash	-12.8321
▁engine	-12.8321
▁Spen	-12.8322
▁locate	-12.8322
plain	-12.8322
▁gait	-12.8323
▁6'6	-12.8323
▁greas	-12.8323
roomy	-12.8324
fix	-12.8326
hood	-12.8326
▁Ta	-12.8328
▁sacrific	-12.8328
sol	-12.8328
▁coz	-12.833
▁HOLD	-12.8331
▁confort	-12.8331
▁profession	-12.8331
▁Adjust	-12.8331
ubstantial	-12.8331
▁indent	-12.8331
urgundy	-12.8332
▁unzip	-12.8332
▁PRO	-12.8332
▁Oxford	-12.8332
▁chrome	-12.8332
▁contemplat	-12.8332
▁proceed	-12.8332
▁swallow	-12.8332
COND	-12.8332
SEVERAL	-12.8332
disproportionate	-12.8332
|	-12.8332
▁CASUAL	-12.8332
▁COMFY	-12.8332
▁Chino	-12.8332
▁Ecco	-12.8332
▁Elegant	-12.8332
▁FABRIC	-12.8332
▁Finish	-12.8332
▁Glue	-12.8332
▁Japan	-12.8332
▁Kudos	-12.8332
▁LEATHER	-12.8332
▁Matrix	-12.8332
▁Michael	-12.8332
▁Nicaragua	-12.8332
▁Photo	-12.8332
▁Scrusher	-12.8332
▁TINY	-12.8332
▁Tuesday	-12.8332
▁Vegas	-12.8332
▁abrasive	-12.8332
▁articulo	-12.8332
▁blah	-12.8332
▁casio	-12.8332
▁commute	-12.8332
▁commuting	-12.8332
▁cycling	-12.8332
▁dedicate	-12.8332
▁destination	-12.8332
▁elephant	-12.8332
▁facilities	-12.8332
▁focus	-12.8332
▁gildan	-12.8332
▁grandaughter	-12.8332
▁handicap	-12.8332
▁hilarious	-12.8332
▁horrendous	-12.8332
▁hybrid	-12.8332
▁illumination	-12.8332
▁lobster	-12.8332
▁maneuver	-12.8332
▁married	-12.8332
▁numeric	-12.8332
▁oatmeal	-12.8332
▁prescription	-12.8332
▁procedure	-12.8332
▁pronounced	-12.8332
▁relationship	-12.8332
▁retention	-12.8332
▁shimmy	-12.8332
▁shoddy	-12.8332
▁skagen	-12.8332
▁spikes	-12.8332
▁squeek	-12.8332
▁study	-12.8332
▁tunic	-12.8332
▁affair	-12.8332
▁increment	-12.8332
▁DUTY	-12.8332
▁Demi	-12.8332
▁Pacific	-12.8332
▁asleep	-12.8332
▁phenomenal	-12.8332
▁qualify	-12.8332
▁suprised	-12.8332
▁Pendant	-12.8332
▁condensation	-12.8332
▁monkey	-12.8332
▁Company	-12.8332
▁burlap	-12.8332
▁heaviest	-12.8332
▁wierd	-12.8332
▁Eddie	-12.8332
▁discard	-12.8332
▁drastically	-12.8332
▁digress	-12.8332
▁route	-12.8332
▁Stockings	-12.8332
▁pizza	-12.8332
▁urethane	-12.8332
PORT	-12.8332
▁ashamed	-12.8332
▁cowgirl	-12.8332
▁fisherman	-12.8332
▁WHITE	-12.8332
▁Vegan	-12.8332
▁harm	-12.8332
▁Canyon	-12.8332
▁grandchild	-12.8332
▁vibrate	-12.8332
▁Carhatt	-12.8332
▁Odd	-12.8332
▁sleet	-12.8332
▁bodies	-12.8332
▁vent	-12.8332
▁shinny	-12.8332
▁Shape	-12.8332
▁arrangement	-12.8332
▁mismarked	-12.8332
▁rotation	-12.8332
▁DEAL	-12.8332
▁FOUND	-12.8332
▁sideways	-12.8332
▁Durability	-12.8332
▁phase	-12.8332
▁Haha	-12.8332
▁logger	-12.8332
Petite	-12.8332
▁scub	-12.8332
▁Propper	-12.8332
▁verify	-12.8332
▁$$$	-12.8332
▁bald	-12.8333
▁Viet	-12.8333
▁foresee	-12.8333
▁brittle	-12.8333
▁Dirt	-12.8333
▁skills	-12.8333
▁eyesight	-12.8333
▁precious	-12.8333
▁hart	-12.8333
▁Duty	-12.8333
▁unsatisfied	-12.8333
▁Ironman	-12.8333
▁moist	-12.8333
▁wrapping	-12.8333
▁Ohio	-12.8333
▁formula	-12.8333
▁STABILicers	-12.8333
▁BEAUTIFUL	-12.8333
▁celebration	-12.8333
▁conical	-12.8333
▁5.11	-12.8334
▁feat	-12.8334
▁SURE	-12.8334
▁Body	-12.8334
▁mink	-12.8334
▁stumble	-12.8334
UCH	-12.8334
ville	-12.8334
▁8.5-9	-12.8334
▁dumb	-12.8334
▁COLD	-12.8334
▁indentation	-12.8334
▁PUT	-12.8334
footed	-12.8334
▁puzzle	-12.8334
▁WANT	-12.8334
▁Boss	-12.8334
▁bothersome	-12.8334
▁debit	-12.8334
▁Hood	-12.8334
▁Haggar	-12.8335
▁DATE	-12.8335
▁END	-12.8335
▁rebuy	-12.8335
▁addict	-12.8335
▁95	-12.8335
▁disapointed	-12.8335
▁jazz	-12.8335
FL	-12.8335
▁Acadia	-12.8335
▁bush	-12.8335
▁Toddler	-12.8335
▁WTF	-12.8335
▁Victorinox	-12.8335
▁comforable	-12.8335
▁steer	-12.8335
▁LEGS	-12.8336
▁dorky	-12.8336
▁regretted	-12.8336
▁Fred	-12.8336
▁EMS	-12.8336
▁anniversary	-12.8336
▁Snow	-12.8336
▁ego	-12.8337
▁9-10	-12.8337
▁deadlifting	-12.8337
▁dingy	-12.8337
▁soreness	-12.8337
▁10-15	-12.8338
▁Cotol	-12.8338
▁Currently	-12.8338
▁junior	-12.8338
▁invented	-12.8338
▁Luv	-12.8338
sistant	-12.8338
▁Dail	-12.8338
▁practicality	-12.8338
▁168	-12.8338
minimal	-12.8339
▁weld	-12.8339
▁workhorse	-12.8339
▁yellowish	-12.8339
NESS	-12.8339
▁tween	-12.8339
Cedar	-12.8339
▁legible	-12.834
▁Child	-12.834
▁resoled	-12.834
▁unwashed	-12.834
▁Spec	-12.834
▁Previously	-12.834
▁afore	-12.834
▁71/2	-12.834
▁jiggle	-12.834
▁sweatpants	-12.8341
▁labelled	-12.8341
ketch	-12.8342
▁wheat	-12.8342
▁ti	-12.8342
▁Bez	-12.8343
▁fifty	-12.8346
▁OMG	-12.8346
▁Traditional	-12.8346
▁shimmery	-12.8346
▁State	-12.8348
▁stirrups	-12.8348
▁Attractive	-12.8348
active	-12.8349
▁LIKED	-12.8349
▁WORKS	-12.835
▁overheated	-12.835
none	-12.8352
▁vertically	-12.8354
pot	-12.8354
▁KEENS	-12.8356
▁reply	-12.8359
▁511	-12.8359
▁shining	-12.8359
tough	-12.836
rench	-12.8361
▁57	-12.8363
▁cutter	-12.8363
▁bumpy	-12.8364
▁manually	-12.8366
▁grooves	-12.837
▁clients	-12.837
▁Bay	-12.837
▁nit	-12.8371
▁MA	-12.8371
▁advanced	-12.8371
dressed	-12.8375
▁leaked	-12.838
▁Live	-12.8381
Read	-12.8381
▁pose	-12.8382
▁adequately	-12.8383
LUE	-12.8383
▁fins	-12.8383
ancy	-12.8386
▁siders	-12.8386
▁protrude	-12.8386
▁locking	-12.8388
▁forgetting	-12.8389
▁(5)	-12.8389
▁coupons	-12.8391
▁patched	-12.8391
▁Wally	-12.8393
▁buttonhole	-12.8396
▁recomended	-12.8397
▁thorns	-12.8402
▁burned	-12.8404
lifting	-12.8406
▁cheeks	-12.8413
works	-12.8414
▁rods	-12.8419
▁wo	-12.8423
Note	-12.8426
▁positioned	-12.8427
oes	-12.8428
eez	-12.8429
▁aesthetics	-12.8434
▁danced	-12.8436
normally	-12.8441
▁Clark	-12.8442
ppl	-12.8444
▁thousands	-12.8445
rac	-12.8449
▁drops	-12.8452
▁9)	-12.8453
▁donation	-12.8456
mens	-12.8458
Delight	-12.847
▁speaking	-12.8472
▁wearers	-12.8474
▁Johns	-12.8476
▁beep	-12.8476
ool	-12.8478
▁PS	-12.8484
▁val	-12.8486
▁tender	-12.849
▁remarkabl	-12.8495
▁walkers	-12.8502
4""	-12.8503
lap	-12.8508
INE	-12.8508
using	-12.8514
▁col	-12.8517
▁contours	-12.852
Keens	-12.8534
▁kn	-12.8535
DA	-12.8538
iding	-12.854
▁females	-12.854
EAR	-12.8541
▁thongs	-12.8543
▁Boys	-12.8543
▁tam	-12.8546
▁imitations	-12.8554
owdy	-12.8554
itting	-12.8557
rasp	-12.8562
▁sheds	-12.8567
▁Lot	-12.8576
▁repairing	-12.8578
▁Items	-12.8584
OUS	-12.859
▁Mil	-12.859
▁finishing	-12.86
▁presented	-12.8602
ency	-12.8605
▁racks	-12.8609
▁soil	-12.862
▁seperate	-12.8626
▁stickers	-12.8631
▁walls	-12.8638
NING	-12.8639
▁dots	-12.8639
▁rider	-12.8648
▁64	-12.8655
▁cla	-12.8657
▁climbs	-12.8663
Start	-12.8664
▁brightly	-12.8678
pin	-12.8681
pal	-12.8681
pecially	-12.8684
▁Po	-12.8687
Guts	-12.8691
url	-12.8692
▁Cap	-12.8698
▁dip	-12.8699
▁Hot	-12.8703
▁Tai	-12.8704
▁wipes	-12.8707
▁Surprise	-12.8708
▁workday	-12.8712
OOO	-12.8712
▁ser	-12.8713
▁199	-12.8714
ailed	-12.8715
▁chills	-12.8719
0""	-12.8723
▁distress	-12.8725
▁braces	-12.873
NK	-12.8733
27	-12.8734
▁improvements	-12.8752
▁Pin	-12.8757
cket	-12.8772
▁island	-12.8776
DE	-12.878
▁Reg	-12.8781
▁egg	-12.8785
▁vis	-12.8788
OP	-12.8795
▁Lu	-12.8826
toed	-12.8828
▁pot	-12.8859
▁jut	-12.886
▁pools	-12.8868
▁PU	-12.8882
▁thri	-12.8884
▁Danners	-12.8887
Sizes	-12.8898
▁CT	-12.8905
▁GU	-12.8906
nuff	-12.8907
▁polos	-12.8909
▁(30	-12.8909
▁PRE	-12.8912
▁20""	-12.8919
▁PF	-12.8934
FUL	-12.8935
▁fro	-12.8937
▁cami	-12.895
stitched	-12.8958
▁ADD	-12.8962
▁56	-12.8964
▁misc	-12.8967
▁watchbands	-12.8977
▁plai	-12.8985
▁$1	-12.8999
rfect	-12.8999
sky	-12.9002
▁gi	-12.9006
26	-12.9017
soles	-12.9017
▁staples	-12.9023
mar	-12.9029
▁port	-12.9031
▁terrains	-12.9046
ously	-12.9053
IND	-12.9053
9.5	-12.9062
▁Min	-12.9083
▁east	-12.9089
▁Stabil	-12.9107
ESS	-12.9114
▁dimension	-12.9124
▁350	-12.9135
rail	-12.9157
wears	-12.9158
▁RO	-12.9168
▁crop	-12.9174
▁map	-12.9189
▁alternatives	-12.9219
▁rang	-12.9222
Are	-12.923
▁thingy	-12.9231
eanwhile	-12.9235
paid	-12.9251
▁bun	-12.9262
match	-12.9264
▁Trouser	-12.9271
0/	-12.928
pant	-12.93
0)	-12.93
rg	-12.931
TING	-12.931
▁disappointments	-12.9313
girl	-12.9317
WE	-12.9321
▁demand	-12.9331
▁lug	-12.9333
▁firefighter	-12.9341
▁loafer	-12.9345
▁pl	-12.9347
▁chino	-12.9351
▁ladder	-12.9351
▁stream	-12.9352
ured	-12.9356
/26	-12.9356
ICE	-12.9358
▁pile	-12.9361
▁transit	-12.9365
▁pla	-12.9366
▁author	-12.9369
▁Nor	-12.9373
▁jewelers	-12.9384
▁replica	-12.9384
FA	-12.9399
▁attend	-12.9415
could	-12.9418
▁annoy	-12.9418
ipped	-12.9419
Compar	-12.9422
biased	-12.9422
COM	-12.9423
Wallet	-12.9423
Favorite	-12.9423
Remember	-12.9423
video	-12.9423
Costume	-12.9423
Bali	-12.9423
traditional	-12.9424
typical	-12.9424
chucks	-12.9424
wonderful	-12.9424
heart	-12.9424
pretty	-12.9424
snug	-12.9424
permanent	-12.9424
Sorry	-12.9424
retro	-12.9424
Terrible	-12.9424
pink	-12.9424
clock	-12.9425
crotch	-12.9425
Excelente	-12.9425
Leg	-12.9425
Hush	-12.9425
narrow	-12.9425
must	-12.9426
before	-12.9428
▁Sun	-12.9429
▁decorate	-12.943
couldn	-12.9431
▁detach	-12.9431
▁pucker	-12.9431
cise	-12.9432
▁increasing	-12.9433
▁tremendous	-12.9433
▁unbutton	-12.9434
xtra	-12.9435
▁cramp	-12.9435
▁mow	-12.9435
▁glitter	-12.9437
▁Room	-12.9437
night	-12.9438
▁Ultra	-12.9438
▁STAR	-12.9439
larger	-12.9439
orescent	-12.9439
▁flawless	-12.944
saw	-12.944
stretchy	-12.9441
▁Than	-12.9441
ontrary	-12.9443
▁birth	-12.9443
100%	-12.9443
aintenance	-12.9443
▁stub	-12.9443
WHERE	-12.9443
▁Euro	-12.9443
▁subtract	-12.9443
▁Earth	-12.9443
▁Holiday	-12.9443
▁LEVI	-12.9443
▁emboss	-12.9443
▁ensemble	-12.9443
▁journey	-12.9443
▁polka	-12.9443
▁substance	-12.9443
REGULAR	-12.9443
ROUGH	-12.9443
Shrink	-12.9443
^	-12.9443
scolour	-12.9443
▁ACU	-12.9443
▁ALOT	-12.9443
▁ANOTHER	-12.9443
▁Captain	-12.9443
▁Dillard	-12.9443
▁ENOUGH	-12.9443
▁Enter	-12.9443
▁Exelent	-12.9443
▁Figure	-12.9443
▁Fleece	-12.9443
▁GIRL	-12.9443
▁HOT	-12.9443
▁Hooray	-12.9443
▁Kiwi	-12.9443
▁Middle	-12.9443
▁Murphy	-12.9443
▁River	-12.9443
▁SERVICE	-12.9443
▁Stripe	-12.9443
▁TAKE	-12.9443
▁TELL	-12.9443
▁Tiffany	-12.9443
▁Utah	-12.9443
▁Vector	-12.9443
▁Vendor	-12.9443
▁WATER	-12.9443
▁WEEK	-12.9443
▁YakTrax	-12.9443
▁Zero	-12.9443
▁airplane	-12.9443
▁allergy	-12.9443
▁brisk	-12.9443
▁buddy	-12.9443
▁desirable	-12.9443
▁draft	-12.9443
▁ebay	-12.9443
▁elliptical	-12.9443
▁escape	-12.9443
▁excursion	-12.9443
▁fracture	-12.9443
▁gender	-12.9443
▁ginormous	-12.9443
▁gluing	-12.9443
▁grandkids	-12.9443
▁humongous	-12.9443
▁inconsistencies	-12.9443
▁intermittent	-12.9443
▁legendary	-12.9443
▁matronly	-12.9443
▁mexico	-12.9443
▁pissed	-12.9443
▁preserve	-12.9443
▁pristine	-12.9443
▁progress	-12.9443
▁prominent	-12.9443
▁quaility	-12.9443
▁scarecrow	-12.9443
▁shoehorn	-12.9443
▁splurge	-12.9443
▁straightforward	-12.9443
▁understatement	-12.9443
▁unforgiving	-12.9443
▁unsightly	-12.9443
▁varieties	-12.9443
▁waaay	-12.9443
▁wacoal	-12.9443
▁Silly	-12.9443
▁boulder	-12.9443
▁buttocks	-12.9443
▁crimp	-12.9443
▁timbs	-12.9443
ltitude	-12.9443
▁DRESS	-12.9443
▁Davis	-12.9443
▁32-33	-12.9443
▁Trading	-12.9443
▁wrestl	-12.9443
▁Uggs	-12.9443
▁fruit	-12.9443
▁root	-12.9443
▁waterfalls	-12.9443
▁crumple	-12.9443
▁ballerina	-12.9443
▁eraser	-12.9443
▁sailboat	-12.9443
▁shabby	-12.9443
▁Carrhart	-12.9443
▁Puppy	-12.9443
▁Bealls	-12.9443
▁nominal	-12.9443
▁DELIVERY	-12.9443
▁clump	-12.9443
▁drugstore	-12.9443
▁noisy	-12.9443
▁slush	-12.9443
▁discoloration	-12.9443
▁elementary	-12.9443
▁sparse	-12.9443
▁Wire	-12.9443
▁tiring	-12.9443
▁EUR	-12.9443
▁revert	-12.9443
▁Anyhow	-12.9443
▁Hmmm	-12.9443
▁prison	-12.9443
▁swimsuit	-12.9443
▁skating	-12.9443
▁duties	-12.9444
▁medication	-12.9444
▁bride	-12.9444
▁DIFFERENT	-12.9444
▁voice	-12.9444
▁glor	-12.9444
▁conductor	-12.9444
▁stash	-12.9444
▁conversation	-12.9444
▁Downside	-12.9444
▁leap	-12.9444
▁massage	-12.9444
▁Central	-12.9444
▁WalMart	-12.9444
▁woodworking	-12.9444
▁Maine	-12.9444
▁paintball	-12.9444
▁Stick	-12.9444
▁regulat	-12.9444
▁cellphone	-12.9444
▁NEEDED	-12.9444
▁percentage	-12.9444
▁Irish	-12.9444
▁resistent	-12.9444
▁indication	-12.9444
▁bagging	-12.9444
EACH	-12.9444
▁lodg	-12.9444
▁pinned	-12.9444
▁neckwarmer	-12.9444
▁operator	-12.9444
▁Bien	-12.9444
▁connection	-12.9444
▁Camp	-12.9444
▁management	-12.9444
▁Dungaree	-12.9445
▁static	-12.9445
▁billboard	-12.9445
▁bushes	-12.9445
▁classroom	-12.9445
▁Chic	-12.9445
▁$40.00	-12.9445
▁QC	-12.9445
▁dash	-12.9445
▁cardio	-12.9445
▁unstitched	-12.9445
▁organic	-12.9445
▁inadequate	-12.9445
returned	-12.9446
▁Bueno	-12.9446
▁parade	-12.9446
▁couch	-12.9446
▁(42	-12.9446
▁authenticity	-12.9447
▁worthwhile	-12.9447
▁Trail	-12.9447
▁admittedly	-12.9447
▁BEWARE	-12.9447
▁Venezuela	-12.9447
▁disabled	-12.9447
▁flake	-12.9447
▁Nation	-12.9447
bacteria	-12.9447
▁African	-12.9447
▁mustard	-12.9447
▁wayyyyy	-12.9447
▁sacrifice	-12.9447
▁Tree	-12.9448
▁ZE	-12.9448
▁crunchy	-12.9448
▁fluffy	-12.9448
▁distorted	-12.9448
▁witches	-12.9448
▁favorable	-12.9448
▁headband	-12.9449
▁inclined	-12.9449
▁esto	-12.9449
▁machinery	-12.9449
▁restricted	-12.9449
▁Avenue	-12.9449
▁pronation	-12.9449
▁32/32	-12.945
▁SET	-12.945
▁candy	-12.945
▁7/8	-12.945
▁disgusting	-12.945
▁Meaning	-12.945
▁Outlet	-12.945
▁wad	-12.9451
▁vender	-12.9451
▁91/2	-12.9451
▁hopeful	-12.9451
▁PJ	-12.9451
▁AGO	-12.9451
▁mater	-12.9451
▁bluejeans	-12.9452
▁tuff	-12.9452
▁darkened	-12.9452
▁meantime	-12.9452
▁Gap	-12.9453
▁increasingly	-12.9453
▁collector	-12.9454
▁Issue	-12.9454
▁uh	-12.9455
▁ribbing	-12.9455
▁Stand	-12.9455
▁cris	-12.9455
▁DAYS	-12.9456
▁Thx	-12.9456
▁dicke	-12.9456
▁attending	-12.9457
▁seasonal	-12.9457
▁Dam	-12.9458
▁80%	-12.9458
feeling	-12.9458
▁OH	-12.9459
▁compete	-12.9459
▁Timeless	-12.946
▁270	-12.946
▁approaching	-12.946
▁blessing	-12.946
ollar	-12.9461
▁apartment	-12.9461
▁skinnie	-12.9461
▁compressed	-12.9461
▁starched	-12.9461
▁screaming	-12.9461
▁*****	-12.9462
▁relieved	-12.9462
▁290	-12.9463
ief	-12.9464
140	-12.9466
▁gathering	-12.9466
▁exec	-12.9467
▁existent	-12.9467
▁Worst	-12.9467
yet	-12.9467
▁260	-12.9467
▁located	-12.9468
▁tack	-12.9468
▁reminder	-12.9468
▁fixable	-12.9469
▁mph	-12.9469
este	-12.947
▁DH	-12.947
▁photographer	-12.9471
▁potentially	-12.9471
atina	-12.9471
▁dancer	-12.9472
▁accepted	-12.9473
▁Heck	-12.9476
▁untie	-12.9477
▁agent	-12.9477
another	-12.9478
▁Sooo	-12.9478
▁fitness	-12.948
▁converted	-12.9482
▁"6	-12.9482
▁seeking	-12.9483
▁BF	-12.9484
▁enjoyable	-12.9484
▁itching	-12.9484
▁Coveralls	-12.9486
▁configurations	-12.9486
labled	-12.9486
ager	-12.9486
▁Mall	-12.9487
▁sleeveless	-12.9492
▁intention	-12.9493
treat	-12.9496
-24	-12.9496
▁imperfections	-12.9498
▁sessions	-12.9498
▁Rare	-12.9498
▁suffered	-12.9498
▁proportional	-12.9499
▁snugness	-12.95
Cup	-12.95
▁sucked	-12.9505
▁clamps	-12.951
▁sparks	-12.951
▁tea	-12.951
▁marginal	-12.9511
item	-12.9518
▁nope	-12.9518
▁merc	-12.952
▁workboots	-12.952
▁HD	-12.9521
▁orthodics	-12.9522
DY	-12.9523
▁moo	-12.9523
▁rigg	-12.9524
ttl	-12.9525
▁Amazingly	-12.9527
▁jus	-12.9527
▁sting	-12.9528
▁Notice	-12.9529
▁vet	-12.953
▁stretchable	-12.9531
▁chat	-12.9533
▁Islands	-12.9534
▁painfully	-12.9536
IES	-12.9536
▁detailing	-12.9537
lent	-12.9544
▁piles	-12.9546
▁lugs	-12.9546
▁-20	-12.9547
slide	-12.9549
24	-12.9551
shrunk	-12.9551
Tops	-12.9553
lter	-12.9556
▁vents	-12.9556
▁States	-12.9558
▁reflections	-12.9558
▁incase	-12.9561
▁Perfection	-12.9562
aka	-12.9562
/7	-12.9567
▁talla	-12.9568
▁threading	-12.9578
▁,,,	-12.9587
▁believer	-12.9597
Hello	-12.96
▁artic	-12.9603
▁whi	-12.9603
▁shined	-12.9609
▁ITEM	-12.9611
▁arr	-12.9613
raction	-12.9618
▁Heel	-12.9622
RFI	-12.9622
▁completed	-12.9622
-----	-12.9624
▁pee	-12.9624
▁Pearl	-12.9626
▁scrapes	-12.9626
▁someday	-12.9627
▁builder	-12.9635
2016	-12.9642
skin	-12.9644
85	-12.9644
▁races	-12.9656
/6	-12.9657
done	-12.9659
legs	-12.9659
▁recycle	-12.9661
▁hightops	-12.9669
wire	-12.9672
snow	-12.9676
▁remark	-12.9684
▁Cat	-12.9687
▁rod	-12.9687
▁Bob	-12.9694
▁wit	-12.9696
▁staining	-12.97
AV	-12.9705
fine	-12.9708
▁Mart	-12.9708
▁hills	-12.9711
hole	-12.9716
▁compl	-12.9716
▁applications	-12.9717
Advertised	-12.9719
▁rot	-12.9719
▁deli	-12.9729
▁angles	-12.973
▁ple	-12.973
mini	-12.976
aple	-12.9766
pher	-12.9774
PS	-12.9777
▁fab	-12.9778
▁caring	-12.9789
Red	-12.9799
▁irritates	-12.9804
▁$70	-12.9806
▁8-8	-12.981
▁Gore	-12.9815
▁lessen	-12.9817
▁Wool	-12.9818
▁fences	-12.9829
hoo	-12.983
kind	-12.9834
▁Sound	-12.9843
RECE	-12.9848
OTH	-12.9851
▁$200	-12.9857
lock	-12.9858
gold	-12.986
▁WASH	-12.9862
/2	-12.9866
▁Champions	-12.9866
▁users	-12.9868
▁TON	-12.987
rotch	-12.9872
▁$2	-12.9873
▁doctors	-12.9879
cotch	-12.9888
65	-12.9893
sure	-12.9897
▁suggesting	-12.9909
▁sty	-12.9927
icked	-12.9929
▁clo	-12.9938
col	-12.9944
istic	-12.9969
▁cords	-12.9973
Per	-12.9979
▁keepers	-12.9981
ural	-12.9984
▁crum	-12.9986
▁trains	-12.999
▁drawbacks	-12.9992
trol	-12.9993
96	-12.9995
▁rat	-12.9998
▁Cal	-12.9998
UAL	-13.0046
XW	-13.0047
TIC	-13.0047
tible	-13.0052
▁ki	-13.0058
nstallation	-13.0058
▁ev	-13.0058
▁1000	-13.0059
poo	-13.0062
almon	-13.0063
▁codes	-13.0069
▁ding	-13.0075
designed	-13.0095
▁plush	-13.0098
▁----	-13.0116
▁ponchos	-13.012
uz	-13.012
ench	-13.0133
ending	-13.0134
Ran	-13.0166
▁downsize	-13.0168
▁BS	-13.0171
▁smoothing	-13.0174
▁barbe	-13.0175
!!!!!!!!!!	-13.0176
iker	-13.0178
>)	-13.0179
▁burns	-13.0185
▁tanks	-13.02
▁sooth	-13.0204
▁tal	-13.0228
rift	-13.0231
tamin	-13.0249
▁Cross	-13.0267
wr	-13.0271
rough	-13.0281
▁scan	-13.0293
peaking	-13.0295
▁$22	-13.0298
▁Mor	-13.0303
ripping	-13.0313
▁aches	-13.0321
▁BO	-13.0332
▁expose	-13.0333
▁stoop	-13.0334
003	-13.0337
▁plug	-13.0348
▁beet	-13.0364
etly	-13.0379
ited	-13.0385
▁Boo	-13.0387
zipping	-13.0392
pri	-13.0401
▁bali	-13.042
BLE	-13.0421
▁incl	-13.0422
rying	-13.0426
▁ea	-13.0435
▁Lion	-13.0436
acks	-13.0451
▁Drie	-13.0452
key	-13.046
95%	-13.0465
ISE	-13.0466
▁den	-13.0474
▁fla	-13.0475
ule	-13.0482
DONT	-13.0491
▁disc	-13.051
bye	-13.0512
:))	-13.0517
notch	-13.052
itch	-13.0538
training	-13.054
7-1/2	-13.0543
▁intent	-13.0551
amente	-13.0575
▁recognize	-13.0582
gain	-13.0586
▁cheek	-13.0592
▁graphic	-13.0593
▁Chaco	-13.0594
▁sch	-13.0594
▁instruction	-13.0597
▁NORMAL	-13.0601
▁va	-13.0603
▁supplie	-13.0605
▁Island	-13.0606
▁daug	-13.0611
Carhart	-13.0613
Indiglo	-13.0615
early	-13.0633
friend	-13.0642
▁recu	-13.0648
▁relie	-13.0653
grown	-13.0655
▁compa	-13.0665
hang	-13.0666
Real	-13.0667
▁cram	-13.0668
airy	-13.0668
▁constrict	-13.0668
Time	-13.0671
Sterling	-13.0672
Attractive	-13.0673
Authentic	-13.0673
Green	-13.0673
PLUS	-13.0673
Zipper	-13.0673
Stylish	-13.0673
FYI	-13.0673
Jacket	-13.0673
*****	-13.0673
Style	-13.0673
Two	-13.0673
Should	-13.0673
Khaki	-13.0673
TIME	-13.0673
Sadly	-13.0673
unisex	-13.0673
dozen	-13.0673
nurse	-13.0673
obviously	-13.0674
hopefully	-13.0674
unfortunately	-13.0674
ankle	-13.0674
Both	-13.0674
Dockers	-13.0674
business	-13.0674
similar	-13.0674
uniform	-13.0674
quick	-13.0674
smooth	-13.0674
stylish	-13.0674
Also	-13.0674
husband	-13.0674
travel	-13.0674
weather	-13.0674
gift	-13.0674
skinny	-13.0674
find	-13.0674
belt	-13.0674
buckle	-13.0674
brush	-13.0674
sexy	-13.0674
three	-13.0674
navy	-13.0674
block	-13.0674
mill	-13.0674
Extra	-13.0674
Over	-13.0675
opaque	-13.0675
height	-13.0675
four	-13.0675
believe	-13.0675
expected	-13.0675
whatever	-13.0675
▁stich	-13.0679
blend	-13.0679
▁surround	-13.068
crack	-13.068
Initially	-13.068
Worth	-13.0681
▁desire	-13.0681
nconsistent	-13.0681
▁encounter	-13.0682
▁satisfy	-13.0682
▁Previous	-13.0683
▁vast	-13.0683
▁sudden	-13.0683
▁visual	-13.0683
camping	-13.0684
shoot	-13.0684
▁crush	-13.0686
hhh	-13.0687
▁craz	-13.0688
Of	-13.0689
▁locat	-13.0689
Many	-13.069
Sole	-13.069
▁err	-13.0691
ization	-13.0692
ohesion	-13.0692
▁music	-13.0692
▁diabet	-13.0693
einforced	-13.0693
scribe	-13.0693
▁aroma	-13.0693
QUI	-13.0693
▁SLIP	-13.0693
Choose	-13.0693
AUGHT	-13.0693
▁DESIGN	-13.0693
▁EXTRA	-13.0693
▁FAIL	-13.0693
▁LLBean	-13.0693
▁NIKE	-13.0693
▁Peace	-13.0693
▁rayon	-13.0693
▁recreation	-13.0693
▁rectified	-13.0693
HVAC	-13.0693
Samsonite	-13.0693
▁Adult	-13.0693
▁BOTTOM	-13.0693
▁Bryant	-13.0693
▁CHAIN	-13.0693
▁CHRISTMAS	-13.0693
▁Coffee	-13.0693
▁Convenient	-13.0693
▁DKNY	-13.0693
▁Dakota	-13.0693
▁Ebay	-13.0693
▁FADE	-13.0693
▁HALF	-13.0693
▁Houston	-13.0693
▁JOB	-13.0693
▁MEDIUM	-13.0693
▁MONTHS	-13.0693
▁Montana	-13.0693
▁NEXT	-13.0693
▁Organiz	-13.0693
▁PINK	-13.0693
▁SHAPE	-13.0693
▁STORE	-13.0693
▁STURDY	-13.0693
▁Similar	-13.0693
▁Spandex	-13.0693
▁Timbs	-13.0693
▁Versatile	-13.0693
▁Virginia	-13.0693
▁Warehouse	-13.0693
▁Wednesday	-13.0693
▁Weekender	-13.0693
▁Yesterday	-13.0693
▁^_^	-13.0693
▁bagginess	-13.0693
▁bicycle	-13.0693
▁bizarre	-13.0693
▁britches	-13.0693
▁capacity	-13.0693
▁carharrt	-13.0693
▁chime	-13.0693
▁clasic	-13.0693
▁cobbler	-13.0693
▁cobblestone	-13.0693
▁condiciones	-13.0693
▁cosmetic	-13.0693
▁crocs	-13.0693
▁disaster	-13.0693
▁discrepancy	-13.0693
▁edema	-13.0693
▁elevation	-13.0693
▁engage	-13.0693
▁freight	-13.0693
▁government	-13.0693
▁integrity	-13.0693
▁intensity	-13.0693
▁lavender	-13.0693
▁miraculous	-13.0693
▁misshapen	-13.0693
▁mobile	-13.0693
▁obnoxious	-13.0693
▁overwhelming	-13.0693
▁ownership	-13.0693
▁pathetic	-13.0693
▁penetrate	-13.0693
▁peripheral	-13.0693
▁physique	-13.0693
▁reccommend	-13.0693
▁responsable	-13.0693
▁sapphire	-13.0693
▁spirit	-13.0693
▁sprinkle	-13.0693
▁submerge	-13.0693
▁torsolette	-13.0693
▁trimester	-13.0693
▁unfinished	-13.0693
▁unstable	-13.0693
▁Avoid	-13.0693
▁Awsome	-13.0693
▁abnormally	-13.0693
▁academy	-13.0693
▁annual	-13.0693
▁applies	-13.0693
▁audible	-13.0693
▁deliberat	-13.0693
▁galore	-13.0693
▁plunge	-13.0693
▁potato	-13.0693
▁predecessor	-13.0693
▁scenario	-13.0693
▁12-14	-13.0693
▁Tennis	-13.0693
▁grippers	-13.0693
Premium	-13.0693
▁Visor	-13.0693
▁album	-13.0693
▁civilian	-13.0693
▁honor	-13.0693
▁resilient	-13.0693
▁Alarm	-13.0693
▁WALK	-13.0693
▁fiberglass	-13.0693
▁CHEST	-13.0693
▁expert	-13.0693
▁ESPECIAL	-13.0693
▁lumino	-13.0693
▁sandels	-13.0693
▁altogether	-13.0693
▁angel	-13.0693
▁promote	-13.0693
▁EXPE	-13.0693
▁activate	-13.0693
▁decorating	-13.0693
▁monster	-13.0693
▁vamp	-13.0693
▁darling	-13.0693
▁nubuck	-13.0693
▁worm	-13.0693
▁alien	-13.0693
▁EVERYDAY	-13.0693
▁Fila	-13.0693
▁perspiration	-13.0693
▁Taper	-13.0693
▁powerlifting	-13.0693
▁stray	-13.0693
▁battle	-13.0693
▁maiden	-13.0693
▁DOWN	-13.0693
▁EVERYONE	-13.0693
▁avg	-13.0693
▁chillax	-13.0693
▁abandon	-13.0693
▁STAND	-13.0693
▁subdued	-13.0693
▁Dorothy	-13.0694
▁Baby	-13.0694
▁clash	-13.0694
▁restriction	-13.0694
▁lager	-13.0694
▁neice	-13.0694
▁COST	-13.0694
▁estado	-13.0694
▁reinforcement	-13.0694
▁decoration	-13.0694
▁reservation	-13.0694
▁pipe	-13.0694
▁subjective	-13.0694
▁surg	-13.0694
▁frail	-13.0694
▁representation	-13.0694
▁jobsite	-13.0694
2014	-13.0694
▁clever	-13.0694
▁unseen	-13.0694
▁Repair	-13.0694
▁Thinner	-13.0694
▁Afghanistan	-13.0694
▁imagination	-13.0694
▁vibe	-13.0694
▁ONCE	-13.0694
▁groom	-13.0694
▁smack	-13.0694
▁$6.00	-13.0694
▁plating	-13.0694
pendent	-13.0694
▁landings	-13.0694
▁INSIDE	-13.0694
▁Heart	-13.0694
▁invariabl	-13.0694
▁3-5	-13.0694
▁WASHING	-13.0694
▁Passport	-13.0694
▁duration	-13.0694
▁ruff	-13.0694
▁properties	-13.0694
▁Feb	-13.0695
▁Payless	-13.0695
▁chrono	-13.0695
▁CHUCKS	-13.0695
▁conju	-13.0695
▁disagree	-13.0695
▁experiencing	-13.0695
▁bled	-13.0695
▁5-7	-13.0695
▁FACT	-13.0695
▁powerful	-13.0695
▁33/34	-13.0695
▁HAND	-13.0695
▁bale	-13.0695
▁fireman	-13.0695
▁Alas	-13.0695
▁ironically	-13.0695
▁SEEM	-13.0695
▁grace	-13.0696
▁ROCK	-13.0696
▁KIDS	-13.0696
▁RETURNED	-13.0696
▁obs	-13.0696
▁Ross	-13.0696
▁unlace	-13.0696
▁2004	-13.0696
▁spru	-13.0696
▁delete	-13.0696
▁Insoles	-13.0696
▁34-35	-13.0696
▁princesses	-13.0696
▁armband	-13.0696
▁Germany	-13.0696
▁9,5	-13.0696
▁turnaround	-13.0696
▁STR	-13.0697
▁whack	-13.0697
▁crank	-13.0697
▁fist	-13.0697
▁restrain	-13.0697
▁priority	-13.0697
▁Possibl	-13.0697
▁AWFUL	-13.0697
▁Frustrating	-13.0697
▁Metrix	-13.0697
▁Prior	-13.0697
▁Repeat	-13.0697
▁Steel	-13.0697
▁Voguestrap	-13.0697
▁WONDERFUL	-13.0697
▁bronze	-13.0697
▁skamp	-13.0697
▁valuable	-13.0697
▁polar	-13.0698
▁Blend	-13.0698
▁scooter	-13.0698
▁Panties	-13.0698
▁surpassed	-13.0698
▁rebuild	-13.0698
▁canyon	-13.0698
▁Past	-13.0698
▁marvelous	-13.0698
▁Lord	-13.0698
▁6'7	-13.0699
▁4/6	-13.0699
▁Wait	-13.0699
▁chick	-13.0699
rrows	-13.0699
▁adjustability	-13.0699
▁Ultimately	-13.0699
▁devo	-13.07
Savane	-13.07
▁disintegrated	-13.07
▁Sexy	-13.07
does	-13.07
▁roommate	-13.07
▁micro	-13.07
▁permit	-13.0701
▁classier	-13.0701
▁fascitis	-13.0701
ocal	-13.0701
▁Hiking	-13.0701
▁stackable	-13.0701
▁foto	-13.0701
▁36/32	-13.0701
▁9-1/2	-13.0702
▁scout	-13.0702
▁loom	-13.0703
▁abd	-13.0703
▁advert	-13.0703
▁Accurate	-13.0703
▁claw	-13.0703
▁ditch	-13.0704
▁AWAY	-13.0704
▁scour	-13.0705
▁inevitable	-13.0705
▁Dope	-13.0706
▁Omg	-13.0706
▁anyhow	-13.0706
▁purchse	-13.0707
holes	-13.0707
▁disk	-13.0707
▁pouring	-13.0707
▁continuously	-13.0708
▁5-10	-13.0708
▁Wig	-13.0708
▁squishy	-13.0708
▁pleather	-13.0708
▁FREE	-13.0709
98	-13.071
▁billion	-13.071
▁Mind	-13.071
fishing	-13.0711
▁backyard	-13.0711
▁Shock	-13.0712
▁coordinated	-13.0712
▁Tag	-13.0712
prd	-13.0713
▁outsource	-13.0713
▁roominess	-13.0713
▁modesty	-13.0714
▁hauling	-13.0714
▁NW	-13.0715
▁restore	-13.0715
bodie	-13.0715
▁Pay	-13.0717
▁laughing	-13.0717
▁secondary	-13.0718
▁MN	-13.0718
▁PRODUCTS	-13.0718
zza	-13.0718
▁passe	-13.0719
▁unraveled	-13.0719
▁sockless	-13.072
▁contained	-13.0721
▁stow	-13.0721
▁gardener	-13.0721
▁Pull	-13.0722
sneakers	-13.0722
bad	-13.0723
▁severely	-13.0724
▁Che	-13.0726
▁(5'1	-13.0727
▁protector	-13.0728
▁Ox	-13.0728
His	-13.073
▁pour	-13.073
▁entering	-13.073
▁settl	-13.0732
▁grosg	-13.0732
▁listening	-13.0733
▁kneel	-13.0734
plate	-13.0734
▁comeback	-13.0735
▁directed	-13.0735
might	-13.0737
▁cured	-13.0737
▁supplement	-13.0737
▁39""	-13.074
▁thx	-13.0741
▁existed	-13.0742
▁Guys	-13.0742
▁30%	-13.0742
▁nite	-13.0743
▁Hole	-13.0743
paque	-13.0744
▁adapter	-13.0748
▁71	-13.0751
▁structured	-13.0752
uperior	-13.0752
▁Eye	-13.0755
▁fishnets	-13.0755
▁bumper	-13.0756
AGE	-13.0758
▁Call	-13.0758
▁(4)	-13.0761
▁88	-13.0761
▁Marke	-13.0762
▁effectively	-13.0767
▁68	-13.0767
▁shiney	-13.0767
Wasn	-13.0773
▁loudly	-13.0773
!!!!!!!!!!!	-13.0774
▁looseness	-13.0774
▁skid	-13.0775
▁oily	-13.0777
▁Rob	-13.0778
rived	-13.078
▁challenged	-13.0781
▁boned	-13.0781
▁Seams	-13.0782
grade	-13.0782
▁paths	-13.0783
iming	-13.0786
▁insulat	-13.0788
▁narrowness	-13.0788
▁packet	-13.0789
won	-13.079
▁drawing	-13.0796
▁upwards	-13.0796
▁(33	-13.0797
▁tracking	-13.08
▁59	-13.0802
national	-13.0805
▁53	-13.0809
▁firefighters	-13.0811
may	-13.0812
ndiglow	-13.0816
being	-13.0817
▁cracking	-13.0817
seconds	-13.0819
:-)	-13.0824
▁tropics	-13.0824
▁notches	-13.0833
▁stocky	-13.0836
Liked	-13.0837
▁TX	-13.0838
▁straighten	-13.0838
▁brushing	-13.0842
merican	-13.0844
unbelievable	-13.0846
▁printer	-13.0849
▁courts	-13.0852
eek	-13.0853
ggie	-13.0855
▁bugs	-13.0856
▁blistered	-13.086
▁skates	-13.0866
▁disappears	-13.0866
▁dear	-13.0875
▁laughs	-13.0876
▁PE	-13.0877
▁hick	-13.0881
▁passing	-13.0882
▁2+	-13.0885
▁bass	-13.0888
▁bustiers	-13.0894
002	-13.0897
▁adjusters	-13.0901
▁trailer	-13.0902
ua	-13.0904
▁merrells	-13.0908
▁input	-13.0912
▁spills	-13.0923
▁crinkle	-13.0924
!!!!!!!!!!!!!!!!	-13.0929
▁Hasn	-13.0931
cular	-13.0932
▁girlie	-13.0932
▁Dickeys	-13.0936
▁Cro	-13.0938
uge	-13.094
▁bikinis	-13.095
▁unde	-13.0958
Band	-13.0961
▁asap	-13.0964
▁deff	-13.0967
▁soooooo	-13.0967
nnet	-13.0968
hips	-13.0971
feels	-13.0973
▁flattens	-13.0991
▁heavens	-13.0993
▁perk	-13.0994
armour	-13.0997
▁cents	-13.1004
▁storms	-13.1007
▁habits	-13.1007
▁dudes	-13.1007
▁Pol	-13.1008
Give	-13.1009
▁cropp	-13.101
Ro	-13.1018
▁workman	-13.1022
lamp	-13.1023
▁Measur	-13.1034
▁lids	-13.1036
▁Val	-13.1042
utu	-13.1046
ports	-13.1047
▁choke	-13.106
▁hooking	-13.1062
▁Macys	-13.1063
ais	-13.1065
▁stretchers	-13.1069
▁buckled	-13.1076
▁warp	-13.1077
▁increases	-13.1092
8.5	-13.1094
▁pri	-13.1115
toes	-13.1119
▁ribb	-13.112
▁lovers	-13.1121
▁stuffy	-13.1129
uit	-13.1142
▁-----	-13.1143
Crosse	-13.1144
abel	-13.1147
▁animals	-13.1149
pit	-13.115
gue	-13.1159
▁offerings	-13.1178
▁15""	-13.1185
61	-13.1185
▁63	-13.1192
ith	-13.12
▁musty	-13.1204
▁ticks	-13.1204
uddies	-13.1207
2%	-13.1224
anted	-13.1224
▁jo	-13.1233
umber	-13.1281
URE	-13.1286
▁stab	-13.129
thought	-13.1309
▁fiddle	-13.1337
fo	-13.1338
▁trad	-13.135
▁sle	-13.1356
tried	-13.1389
****	-13.1395
▁Ju	-13.1396
plan	-13.1398
lov	-13.1409
▁flapp	-13.1417
rse	-13.142
▁sec	-13.1426
▁wou	-13.144
chan	-13.1447
▁tro	-13.1455
stain	-13.1467
▁Ge	-13.1483
▁defe	-13.1483
NV	-13.1497
lick	-13.15
▁Elm	-13.1516
Bad	-13.1526
▁Isn	-13.1529
▁Wood	-13.1545
1.5	-13.1547
▁LOS	-13.1548
▁GR	-13.156
ium	-13.1574
ght	-13.1576
RED	-13.1591
HE	-13.1617
▁dupe	-13.1625
▁smo	-13.1681
▁cancel	-13.1701
pti	-13.1709
topped	-13.1725
▁Bur	-13.1731
▁bog	-13.1734
name	-13.1737
inder	-13.1762
▁Step	-13.1767
▁Tim	-13.1778
▁dur	-13.1792
hap	-13.18
▁op	-13.181
▁slo	-13.1811
ggy	-13.1829
fortable	-13.183
▁$23	-13.1849
bid	-13.186
oil	-13.1864
far	-13.1865
past	-13.1876
cross	-13.1878
mount	-13.188
▁$19	-13.1883
▁dece	-13.1883
nose	-13.1892
ltering	-13.1892
hower	-13.1899
aint	-13.1907
NTY	-13.1912
onal	-13.1913
rian	-13.1914
▁priva	-13.1917
redit	-13.1933
▁heav	-13.1952
▁yu	-13.1953
heeled	-13.1981
pressed	-13.2003
flop	-13.2004
crease	-13.2007
DER	-13.2008
▁define	-13.2009
▁operat	-13.2015
▁electronic	-13.2018
▁divider	-13.2019
▁orthodic	-13.202
▁thorn	-13.2022
▁competitor	-13.2022
▁adventure	-13.2024
▁tar	-13.2025
▁folk	-13.2025
▁path	-13.2029
▁sidewalk	-13.2034
▁una	-13.2035
PF	-13.204
▁Jan	-13.2041
▁capabilit	-13.2046
▁stranger	-13.2046
▁Scar	-13.2059
▁Care	-13.2061
lift	-13.2069
▁500	-13.207
PPE	-13.207
▁cinche	-13.207
▁MAK	-13.2075
▁commen	-13.2075
-5-	-13.2076
▁exelent	-13.2078
5.00	-13.2079
▁fluctuat	-13.2084
ISH	-13.2085
▁trans	-13.2086
▁rais	-13.2086
please	-13.2088
inner	-13.209
▁Nam	-13.2094
Deliver	-13.2096
▁Conver	-13.2099
professional	-13.21
hemmed	-13.21
Canvas	-13.2101
Port	-13.2101
Shock	-13.2101
Double	-13.2101
OMG	-13.2101
Traditional	-13.2101
Pocket	-13.2101
Nude	-13.2102
Pink	-13.2102
http	-13.2102
MOST	-13.2102
plumber	-13.2102
meaning	-13.2102
Full	-13.2102
yeah	-13.2102
Skagen	-13.2102
Whisper	-13.2102
Thick	-13.2102
Inseam	-13.2102
pattern	-13.2102
Disappointed	-13.2102
YOU	-13.2102
elegant	-13.2102
perhaps	-13.2102
PERFECT	-13.2102
wrinkle	-13.2102
standard	-13.2102
nonsense	-13.2102
Serve	-13.2102
picture	-13.2102
service	-13.2102
particular	-13.2102
quite	-13.2102
wife	-13.2102
tennis	-13.2102
simple	-13.2102
strong	-13.2102
zipper	-13.2102
third	-13.2102
haha	-13.2102
hidden	-13.2102
Ripped	-13.2103
flexible	-13.2103
Law	-13.2103
impressed	-13.2103
Olive	-13.2103
cloth	-13.2103
wrapped	-13.2103
heavier	-13.2103
smell	-13.2104
grand	-13.2104
WEAR	-13.2104
hike	-13.2104
week	-13.2104
jacket	-13.2104
market	-13.2104
nothing	-13.2104
food	-13.2104
next	-13.2105
thermal	-13.2105
wow	-13.2105
▁imagin	-13.2105
depending	-13.2106
▁extrem	-13.2106
inseam	-13.2106
Unless	-13.2107
Low	-13.2107
waiting	-13.2107
▁BAR	-13.2107
▁imper	-13.2107
Delivery	-13.2108
DAY	-13.2109
▁breastfeed	-13.2109
nterior	-13.211
maternity	-13.2111
▁wir	-13.2111
▁reverse	-13.2111
washes	-13.2112
▁fortunate	-13.2112
OCKE	-13.2113
thicker	-13.2113
▁Pic	-13.2114
▁6'0	-13.2114
▁Final	-13.2115
▁quirk	-13.2115
ACT	-13.2115
▁slouch	-13.2116
▁thir	-13.2116
▁crunch	-13.2116
▁fluff	-13.2116
script	-13.2117
Larger	-13.2117
▁sturdi	-13.2118
hate	-13.2118
▁visibl	-13.2118
▁BOOT	-13.2119
exture	-13.2119
▁preschool	-13.212
▁corn	-13.212
treating	-13.212
▁chron	-13.212
channel	-13.212
lluminat	-13.212
nitely	-13.212
Has	-13.2121
▁hype	-13.2121
▁THIN	-13.2121
▁gradua	-13.2121
▁abdom	-13.2121
glass	-13.2121
▁PANT	-13.2121
eutral	-13.2121
▁precio	-13.2121
erformance	-13.2121
▁Spider	-13.2121
ortable	-13.2122
tensive	-13.2122
ietnam	-13.2122
▁arrange	-13.2122
▁Georg	-13.2122
▁Rich	-13.2122
▁embarass	-13.2122
▁reminisc	-13.2122
Distressed	-13.2122
Flimsy	-13.2122
NSIVE	-13.2122
ahrenheit	-13.2122
▁ADVERTISED	-13.2122
▁Apple	-13.2122
▁Appreciate	-13.2122
▁Austin	-13.2122
▁BAGGY	-13.2122
▁BUENO	-13.2122
▁BUXTON	-13.2122
▁Bangladesh	-13.2122
▁Bikini	-13.2122
▁COMPANY	-13.2122
▁Cambodia	-13.2122
▁Caution	-13.2122
▁Club	-13.2122
▁Diego	-13.2122
▁Eagle	-13.2122
▁Ergo	-13.2122
▁FOOT	-13.2122
▁France	-13.2122
▁GLAD	-13.2122
▁GRANDSON	-13.2122
▁Interestingly	-13.2122
▁JUNGLE	-13.2122
▁Junior	-13.2122
▁Lancelot	-13.2122
▁Lugz	-13.2122
▁MOC	-13.2122
▁Munsingwear	-13.2122
▁Niece	-13.2122
▁PEOPLE	-13.2122
▁REASON	-13.2122
▁SHAME	-13.2122
▁SOMETHING	-13.2122
▁TOUGH	-13.2122
▁Teacher	-13.2122
▁barrier	-13.2122
▁boycott	-13.2122
▁breezy	-13.2122
▁briars	-13.2122
▁browsing	-13.2122
▁cellulite	-13.2122
▁celtic	-13.2122
▁ceremony	-13.2122
▁certified	-13.2122
▁confess	-13.2122
▁critique	-13.2122
▁declared	-13.2122
▁density	-13.2122
▁deodorant	-13.2122
▁documents	-13.2122
▁elongated	-13.2122
▁exciting	-13.2122
▁expedient	-13.2122
▁forewarned	-13.2122
▁graphite	-13.2122
▁gravity	-13.2122
▁guest	-13.2122
▁harveste	-13.2122
▁hobby	-13.2122
▁immensely	-13.2122
▁inconsistency	-13.2122
▁kipling	-13.2122
▁kudos	-13.2122
▁lumpectomy	-13.2122
▁millimeter	-13.2122
▁modified	-13.2122
▁nostalgic	-13.2122
▁pedicure	-13.2122
▁penguin	-13.2122
▁pennies	-13.2122
▁pistol	-13.2122
▁pudgy	-13.2122
▁quailty	-13.2122
▁refined	-13.2122
▁refreshed	-13.2122
▁religious	-13.2122
▁replied	-13.2122
▁rothco	-13.2122
▁scheme	-13.2122
▁segment	-13.2122
▁sensation	-13.2122
▁snob	-13.2122
▁spectrum	-13.2122
▁stellar	-13.2122
▁strait	-13.2122
▁suffocating	-13.2122
▁syndrome	-13.2122
▁therapist	-13.2122
▁treacherous	-13.2122
▁uncertain	-13.2122
▁uncommon	-13.2122
▁vinegar	-13.2122
▁vortex	-13.2122
▁wilderness	-13.2122
▁wimpy	-13.2122
▁Bauer	-13.2122
▁Belk	-13.2122
▁Bullet	-13.2122
▁Daniel	-13.2122
▁Firm	-13.2122
▁Knock	-13.2122
▁Midwest	-13.2122
▁Months	-13.2122
▁SEND	-13.2122
▁Sigh	-13.2122
▁Twist	-13.2122
▁UGH	-13.2122
▁accentuate	-13.2122
▁allergies	-13.2122
▁barrel	-13.2122
▁bridesmaid	-13.2122
▁chalk	-13.2122
▁circumstance	-13.2122
▁marble	-13.2122
▁obtain	-13.2122
▁offshore	-13.2122
▁paddock	-13.2122
▁stalkings	-13.2122
▁suffice	-13.2122
▁tattoo	-13.2122
▁therapy	-13.2122
▁unmatched	-13.2122
alvation	-13.2122
▁Chris	-13.2122
▁Coast	-13.2122
▁Data	-13.2122
▁auction	-13.2122
▁clinicals	-13.2122
▁splinter	-13.2122
▁HELP	-13.2122
▁boost	-13.2122
▁expedite	-13.2122
▁polyurethane	-13.2122
▁relegate	-13.2122
▁tidy	-13.2122
▁pooch	-13.2122
▁calluses	-13.2122
▁newspaper	-13.2122
▁thinnest	-13.2122
rhart	-13.2122
▁HBB	-13.2122
▁bolt	-13.2122
▁flimsier	-13.2122
▁Penney	-13.2122
▁Sucks	-13.2122
▁cooperat	-13.2122
▁endorse	-13.2122
▁jewlery	-13.2122
▁nevertheless	-13.2122
▁recess	-13.2122
▁waitress	-13.2122
▁$0.	-13.2122
▁anchor	-13.2122
▁diffrent	-13.2122
▁bundle	-13.2122
▁injuries	-13.2122
▁DIY	-13.2122
▁Lanka	-13.2122
▁Northwest	-13.2122
▁gunmetal	-13.2122
▁representative	-13.2122
▁Prefect	-13.2122
▁Spade	-13.2122
▁abusive	-13.2122
▁ABSOLUTE	-13.2122
▁Earrings	-13.2122
▁cheep	-13.2122
▁assess	-13.2122
▁denial	-13.2122
▁Georgia	-13.2122
7959	-13.2122
▁evidently	-13.2122
▁jelly	-13.2122
▁aromatic	-13.2122
▁sample	-13.2122
▁northeast	-13.2122
▁assistance	-13.2122
▁ususal	-13.2122
▁pumpkin	-13.2122
▁baker	-13.2122
▁silent	-13.2122
▁discern	-13.2122
▁circus	-13.2122
▁slapping	-13.2122
ethical	-13.2122
▁cruel	-13.2122
hipment	-13.2122
▁tromp	-13.2122
▁obes	-13.2122
▁emphasize	-13.2122
▁dread	-13.2122
▁OWN	-13.2122
▁beatiful	-13.2122
▁FOREVER	-13.2122
▁STAY	-13.2122
▁shoestrings	-13.2122
ARD	-13.2122
▁unzipped	-13.2122
▁crewneck	-13.2122
▁vote	-13.2122
▁drum	-13.2122
▁Otter	-13.2122
▁eager	-13.2122
▁copper	-13.2122
pointy	-13.2122
▁Magic	-13.2122
▁instructor	-13.2122
▁sexier	-13.2122
▁shadowline	-13.2122
▁flush	-13.2122
berman	-13.2122
▁tomboy	-13.2122
▁Story	-13.2122
▁strech	-13.2123
▁Coral	-13.2123
Tube	-13.2123
▁Thanksgiving	-13.2123
▁musical	-13.2123
▁funeral	-13.2123
▁Bootcut	-13.2123
▁loyalty	-13.2123
iami	-13.2123
▁JCP	-13.2123
▁reconsider	-13.2123
▁sandstone	-13.2123
Exceed	-13.2123
▁Oder	-13.2123
▁paddle	-13.2123
▁Russe	-13.2123
▁Cru	-13.2123
▁GUY	-13.2123
▁edition	-13.2123
▁Job	-13.2123
FIT	-13.2123
▁luster	-13.2123
▁$25.00	-13.2123
▁gang	-13.2123
iggest	-13.2123
▁Royal	-13.2123
▁fuel	-13.2123
UY	-13.2124
▁lava	-13.2124
▁crucial	-13.2124
▁squirrel	-13.2124
▁enforcement	-13.2124
▁gunsmoke	-13.2124
▁Rose	-13.2124
▁commit	-13.2124
▁lieu	-13.2124
▁COOL	-13.2124
▁coach	-13.2124
▁CALL	-13.2124
▁ignor	-13.2124
▁Logo	-13.2124
▁TAG	-13.2124
▁LONGER	-13.2125
▁Pass	-13.2125
▁Fake	-13.2125
uxton	-13.2125
▁2006	-13.2125
▁Lake	-13.2125
▁snowblowing	-13.2125
▁Crease	-13.2125
enough	-13.2125
▁nato	-13.2125
vision	-13.2125
▁Hour	-13.2125
▁peep	-13.2125
▁34-36	-13.2125
▁idk	-13.2125
▁swish	-13.2125
Retro	-13.2126
▁fluid	-13.2126
▁personality	-13.2126
▁Runner	-13.2126
▁popularity	-13.2126
▁deadline	-13.2126
▁heaver	-13.2126
▁Frye	-13.2126
frills	-13.2126
▁Break	-13.2126
▁batches	-13.2126
▁equat	-13.2126
smaller	-13.2126
▁allowance	-13.2126
▁Round	-13.2127
▁LARGER	-13.2127
mistakenly	-13.2127
▁Cuff	-13.2127
▁Children	-13.2127
▁gaudy	-13.2127
▁Bosca	-13.2127
▁Brilliant	-13.2127
▁[...]	-13.2127
▁THOUGH	-13.2127
▁wiggling	-13.2127
▁2018	-13.2127
▁rashes	-13.2128
▁Side	-13.2128
▁Dear	-13.2128
▁absen	-13.2128
▁recommed	-13.2128
▁Heavyweight	-13.2128
▁outdoorsman	-13.2129
▁admired	-13.2129
▁prematurely	-13.2129
▁Frankly	-13.2129
Replac	-13.2129
▁grit	-13.2129
faced	-13.2129
difficult	-13.213
▁echo	-13.213
▁Yellow	-13.213
Sent	-13.213
▁Warning	-13.213
▁39.5	-13.213
▁Paint	-13.213
▁imply	-13.2131
▁inconvenient	-13.2131
▁36/34	-13.2131
▁#2	-13.2131
▁detect	-13.2131
▁streamlined	-13.2131
aroon	-13.2131
▁Tell	-13.2132
▁soda	-13.2132
▁NEEDS	-13.2132
▁1-1/2""	-13.2132
▁EMT	-13.2132
gear	-13.2132
▁38-30	-13.2133
LOW	-13.2133
▁Bracelet	-13.2133
▁yardwork	-13.2133
▁graduated	-13.2133
▁revealing	-13.2133
▁spoil	-13.2134
▁deform	-13.2134
▁troop	-13.2134
thus	-13.2134
▁kiss	-13.2134
lining	-13.2135
▁deformed	-13.2135
▁6'0""	-13.2135
▁thier	-13.2135
▁tremendously	-13.2135
▁thankyou	-13.2135
▁glossy	-13.2136
▁luminescent	-13.2136
▁Limited	-13.2136
▁lion	-13.2136
▁Occasional	-13.2137
▁underfoot	-13.2137
▁unbuttoned	-13.2137
▁enable	-13.2137
▁101/2	-13.2137
▁Drab	-13.2138
▁surrounding	-13.2138
prox	-13.2138
▁innersole	-13.2139
▁List	-13.2139
▁3/8""	-13.2139
▁dangle	-13.214
▁misses	-13.2141
▁optimal	-13.2141
retail	-13.2141
▁discreetly	-13.2142
▁lume	-13.2142
▁Require	-13.2143
▁underwater	-13.2143
▁badge	-13.2143
▁Hook	-13.2144
CY	-13.2146
0-60	-13.2146
inside	-13.2146
▁cramm	-13.2148
▁spun	-13.2148
▁Rest	-13.2148
▁Watches	-13.2148
ssl	-13.2149
▁communication	-13.2149
▁Dane	-13.215
▁Clothing	-13.215
▁Port	-13.2151
▁deteriorated	-13.2151
▁(7)	-13.2152
▁resolved	-13.2153
▁driven	-13.2154
▁sleeker	-13.2155
▁fog	-13.2155
▁heavenly	-13.2156
▁nut	-13.2157
▁proudly	-13.2158
▁mirrored	-13.216
▁flattened	-13.216
coding	-13.2162
▁weeds	-13.2162
-65	-13.2163
▁faithful	-13.2163
TL	-13.2164
WN	-13.2165
▁exelente	-13.2165
▁addressed	-13.2168
▁filed	-13.2168
▁flee	-13.2169
▁highway	-13.2169
▁AZ	-13.217
▁reas	-13.2171
▁thi	-13.2172
▁wader	-13.2173
▁billow	-13.2173
▁darkness	-13.2175
▁darken	-13.2178
▁offset	-13.2178
▁quads	-13.2178
▁800	-13.2178
▁smudges	-13.2178
▁bruises	-13.2179
▁purchasers	-13.2179
▁gem	-13.2179
▁lengthwise	-13.218
▁judged	-13.2184
▁tarnishing	-13.2184
▁unevenly	-13.2185
▁Mont	-13.2185
Coverage	-13.2186
jury	-13.2187
▁menu	-13.2188
▁motivate	-13.2188
sandals	-13.2191
▁pumping	-13.2191
▁cheapies	-13.2194
▁outlive	-13.2195
▁MC	-13.2195
▁depress	-13.2196
rocks	-13.2197
▁resisted	-13.2199
▁Lack	-13.22
▁Comp	-13.22
▁ked	-13.2201
laces	-13.2202
▁PT	-13.2203
hey	-13.2204
▁durabl	-13.2207
▁rejects	-13.221
▁indicators	-13.221
▁Leggs	-13.2211
▁careless	-13.2211
▁-40	-13.2214
▁damned	-13.2214
yyy	-13.2216
▁mixing	-13.2218
▁squeaked	-13.2219
your	-13.2221
fill	-13.2221
▁transferr	-13.2223
▁electronics	-13.2226
▁dividers	-13.2226
outdated	-13.2229
▁Seam	-13.2232
▁CD	-13.2234
Here	-13.2236
▁balanced	-13.2236
▁everday	-13.2236
▁rav	-13.2237
▁straighter	-13.2238
▁loa	-13.2238
▁outright	-13.2238
▁112	-13.224
?!?	-13.2241
▁cuteness	-13.2241
/35	-13.2242
▁simpler	-13.2243
▁Gil	-13.2245
39	-13.2248
▁charming	-13.2249
hurt	-13.2255
▁thickest	-13.2255
▁DIS	-13.2261
nake	-13.2262
▁(11	-13.2263
▁BH	-13.2264
▁becu	-13.2275
away	-13.2277
▁frill	-13.228
mmediately	-13.2282
▁determin	-13.2283
▁ideally	-13.2286
took	-13.2291
▁joints	-13.2291
▁00	-13.2294
robe	-13.2294
arching	-13.2298
▁Fitting	-13.2302
▁enhances	-13.2307
ivate	-13.2307
ived	-13.2307
▁scam	-13.2309
▁Hardly	-13.231
▁beard	-13.2316
▁repell	-13.2317
▁counted	-13.2317
credit	-13.2322
▁farming	-13.2325
▁spraying	-13.2337
5)	-13.2338
▁daytime	-13.2341
▁Washing	-13.2347
03	-13.2351
▁COULDN	-13.2364
lasted	-13.237
▁ove	-13.2371
▁Updated	-13.2377
rear	-13.2387
▁Done	-13.2388
oper	-13.2392
55	-13.2394
▁yea	-13.2395
▁Ni	-13.2395
▁seated	-13.2409
▁TOE	-13.2415
dimensional	-13.2418
jun	-13.2419
▁nic	-13.2419
▁reward	-13.244
aran	-13.244
$$	-13.2447
▁minimiz	-13.2466
nyon	-13.2477
▁martia	-13.2489
pending	-13.2498
icle	-13.2503
9.95	-13.2504
ncredible	-13.2505
ogling	-13.2509
▁lugg	-13.2512
▁designation	-13.253
tool	-13.2543
para	-13.2545
▁fle	-13.2564
troph	-13.2576
▁abou	-13.26
%2	-13.2603
ette	-13.2651
▁revisi	-13.266
▁peak	-13.2662
paced	-13.2675
▁???	-13.2731
uce	-13.2743
eral	-13.2755
acco	-13.276
▁Lan	-13.2763
strikes	-13.2765
25+	-13.2772
acu	-13.2782
▁Change	-13.2793
enter	-13.2807
nted	-13.2817
▁discourage	-13.2821
DF	-13.2825
54	-13.2825
iked	-13.2834
roid	-13.2866
▁Mari	-13.2867
▁13.5	-13.2873
Lie	-13.2875
0000	-13.2904
▁traveler	-13.2909
▁looooo	-13.2932
▁cop	-13.2934
▁Wrist	-13.2948
▁Natur	-13.2957
AG	-13.2964
▁fiddl	-13.2982
umble	-13.2989
▁fus	-13.299
hee	-13.3019
▁upload	-13.3022
thful	-13.3029
▁Select	-13.3042
▁compensati	-13.3049
▁media	-13.3068
lab	-13.3089
add	-13.3116
▁stare	-13.3119
ME	-13.3134
▁bre	-13.3177
EEEE	-13.3194
▁Mini	-13.3205
▁che	-13.3227
▁Fal	-13.3231
iment	-13.3272
ugged	-13.3289
++++++	-13.3297
▁sta	-13.3319
▁mono	-13.3338
▁DR	-13.3339
▁Dee	-13.3339
▁deter	-13.3348
▁van	-13.3367
list	-13.3372
▁REC	-13.3386
WENT	-13.3396
figured	-13.3398
EEE	-13.3413
rmuda	-13.3442
KED	-13.345
52	-13.3454
▁$55	-13.3459
Stra	-13.3474
▁Bill	-13.3486
rice	-13.3489
▁VI	-13.3506
usual	-13.351
▁84	-13.353
▁153	-13.3533
camp	-13.354
stitching	-13.3555
▁SIN	-13.3557
ggplant	-13.3564
vailable	-13.3565
▁knitte	-13.3576
36""	-13.3581
space	-13.3582
▁Qu	-13.3587
▁proportion	-13.3593
▁SOOO	-13.3601
covered	-13.3602
goes	-13.3617
sigh	-13.3618
▁Doc	-13.3619
tech	-13.3623
~"	-13.3632
6.5	-13.3632
▁doubl	-13.3646
sandal	-13.3666
▁transfer	-13.367
▁occassion	-13.3672
874)	-13.3673
▁clamp	-13.3674
punk	-13.3677
▁spark	-13.3679
▁reject	-13.3685
▁coupon	-13.3687
immer	-13.3687
▁indicator	-13.3689
▁nip	-13.3703
▁Crap	-13.3709
-38	-13.3709
▁overlook	-13.371
contracts	-13.371
▁perfec	-13.372
▁RES	-13.3729
▁workpant	-13.3731
fold	-13.3734
▁66	-13.3739
▁improv	-13.3751
glue	-13.3751
agne	-13.3753
lady	-13.3754
▁discontinu	-13.3755
uality	-13.3756
design	-13.3757
▁identif	-13.3759
▁Sweat	-13.3759
▁reduc	-13.376
▁discolor	-13.3764
broke	-13.3766
▁ke	-13.3767
Professional	-13.3767
Knee	-13.3767
environmental	-13.3767
jack	-13.3767
happy	-13.3767
FREE	-13.3768
consider	-13.3768
Silver	-13.3768
Sandal	-13.3768
Park	-13.3768
Front	-13.3768
Could	-13.3768
Army	-13.3768
▁curv	-13.3768
satisfaction	-13.3768
Indonesia	-13.3768
Surprisingly	-13.3768
bank	-13.3768
Timberland	-13.3768
brainer	-13.3768
Smell	-13.3768
conscious	-13.3768
Terrific	-13.3768
Except	-13.3768
Roomy	-13.3768
rigid	-13.3769
Three	-13.3769
Maidenform	-13.3769
guard	-13.3769
shaping	-13.3769
minimize	-13.3769
Gildan	-13.3769
5'6""	-13.3769
screw	-13.3769
muffin	-13.3769
Berkshire	-13.3769
vintage	-13.3769
Almost	-13.3769
charcoal	-13.3769
cushioned	-13.3769
together	-13.3769
READ	-13.3769
skirt	-13.3769
metal	-13.3769
knock	-13.3769
indiglo	-13.3769
season	-13.3769
GOOD	-13.3769
adult	-13.3769
breathe	-13.3769
yellow	-13.3769
Navy	-13.3769
Quit	-13.3769
insert	-13.3769
durability	-13.3769
field	-13.3769
finally	-13.3769
industrial	-13.3769
problem	-13.3769
dickies	-13.3769
people	-13.3769
received	-13.3769
bulky	-13.3769
More	-13.3769
▁pray	-13.3769
solid	-13.3769
legged	-13.3769
waterproof	-13.3769
However	-13.377
Cut	-13.377
Brand	-13.377
baby	-13.3771
dressier	-13.3771
Honestly	-13.3771
Again	-13.3772
Couldn	-13.3772
customer	-13.3772
spring	-13.3772
kinda	-13.3774
▁----------	-13.3774
▁outrage	-13.3774
ncluding	-13.3775
spoiled	-13.3775
▁reveal	-13.3775
delicate	-13.3775
input	-13.3775
▁stabilize	-13.3775
▁graduate	-13.3776
▁prepare	-13.3776
▁plow	-13.3777
nfant	-13.3777
▁Class	-13.3777
warmer	-13.3777
panty	-13.3779
▁thorough	-13.3779
Flex	-13.3781
glued	-13.3782
▁relate	-13.3782
><	-13.3782
doubt	-13.3782
See	-13.3782
▁convers	-13.3782
▁batter	-13.3783
zzy	-13.3783
sticky	-13.3783
snap	-13.3784
▁5'1	-13.3784
▁instant	-13.3785
▁Barr	-13.3785
drop	-13.3785
▁swam	-13.3785
their	-13.3786
▁Buen	-13.3787
▁superhero	-13.3787
imosa	-13.3787
ermanent	-13.3788
loving	-13.3788
▁stylin	-13.3788
▁prince	-13.3788
orkmanship	-13.3788
atisfactory	-13.3788
▁applicat	-13.3788
Alicia	-13.3788
▁KID	-13.3788
▁complex	-13.3788
aratrooper	-13.3788
▁$24	-13.3788
Flannel	-13.3788
▁dramatic	-13.3788
▁consult	-13.3788
Friend	-13.3788
▁rehab	-13.3788
educat	-13.3788
20031	-13.3788
▁Cushion	-13.3788
▁Sparkl	-13.3788
▁Surviv	-13.3788
▁YMMV	-13.3788
▁navigat	-13.3788
▁reimburse	-13.3788
804/6	-13.3788
Exellent	-13.3788
Folks	-13.3788
POSSIBLE	-13.3788
Purple	-13.3788
default	-13.3788
onnoisseur	-13.3788
▁AMERICA	-13.3788
▁ARCH	-13.3788
▁Apparel	-13.3788
▁BATTERY	-13.3788
▁Bummed	-13.3788
▁CANVAS	-13.3788
▁CLAS	-13.3788
▁COAT	-13.3788
▁CRAZY	-13.3788
▁Cahartt	-13.3788
▁Cardex	-13.3788
▁Carnival	-13.3788
▁Combine	-13.3788
▁Contractor	-13.3788
▁Cowboy	-13.3788
▁Craftsman	-13.3788
▁Crisp	-13.3788
▁Example	-13.3788
▁Excursion	-13.3788
▁Gerber	-13.3788
▁Ghost	-13.3788
▁HOURS	-13.3788
▁Henderson	-13.3788
▁Idaho	-13.3788
▁Kindergarten	-13.3788
▁Multipl	-13.3788
▁NOPE	-13.3788
▁Nathan	-13.3788
▁Nikwax	-13.3788
▁Oakley	-13.3788
▁Piece	-13.3788
▁REFUND	-13.3788
▁REGRET	-13.3788
▁Refund	-13.3788
▁SHOW	-13.3788
▁SMELL	-13.3788
▁SPERRY	-13.3788
▁SWEATSHIRT	-13.3788
▁Spain	-13.3788
▁Strauss	-13.3788
▁Street	-13.3788
▁Surplus	-13.3788
▁TYPE	-13.3788
▁Taupe	-13.3788
▁Transaction	-13.3788
▁Utility	-13.3788
▁VALUE	-13.3788
▁Veteran	-13.3788
▁WRIST	-13.3788
▁absurd	-13.3788
▁amphibious	-13.3788
▁ancient	-13.3788
▁armoire	-13.3788
▁assumption	-13.3788
▁blemish	-13.3788
▁brassiere	-13.3788
▁burgandy	-13.3788
▁capital	-13.3788
▁caramel	-13.3788
▁carpentry	-13.3788
▁chintzy	-13.3788
▁clerk	-13.3788
▁clinic	-13.3788
▁columbia	-13.3788
▁conference	-13.3788
▁consequently	-13.3788
▁consuming	-13.3788
▁contemporary	-13.3788
▁craftmanship	-13.3788
▁creasing	-13.3788
▁curiosity	-13.3788
▁depicts	-13.3788
▁diferent	-13.3788
▁downpour	-13.3788
▁eligible	-13.3788
▁enviroment	-13.3788
▁escaping	-13.3788
▁exploring	-13.3788
▁filthy	-13.3788
▁gadget	-13.3788
▁garish	-13.3788
▁gimmick	-13.3788
▁hamper	-13.3788
▁husky	-13.3788
▁implies	-13.3788
▁incident	-13.3788
▁independent	-13.3788
▁influence	-13.3788
▁insufficien	-13.3788
▁interaction	-13.3788
▁karate	-13.3788
▁klutz	-13.3788
▁landscaper	-13.3788
▁lanky	-13.3788
▁lenth	-13.3788
▁lumbar	-13.3788
▁malfunction	-13.3788
▁medallion	-13.3788
▁motorbike	-13.3788
▁necessities	-13.3788
▁nuisance	-13.3788
▁omega	-13.3788
▁overjoyed	-13.3788
▁paracord	-13.3788
▁preparation	-13.3788
▁recital	-13.3788
▁recognition	-13.3788
▁rectangular	-13.3788
▁relevan	-13.3788
▁retiring	-13.3788
▁retriev	-13.3788
▁rhinestone	-13.3788
▁robber	-13.3788
▁sightseeing	-13.3788
▁stoked	-13.3788
▁studio	-13.3788
▁supervisor	-13.3788
▁susceptible	-13.3788
▁temporarily	-13.3788
▁throat	-13.3788
▁toiletries	-13.3788
▁treasure	-13.3788
▁victoria	-13.3788
▁yourselves	-13.3788
Pleasant	-13.3788
▁Gross	-13.3788
▁James	-13.3788
▁Lately	-13.3788
▁boonie	-13.3788
▁contort	-13.3788
▁inherent	-13.3788
▁ningun	-13.3788
▁pharmac	-13.3788
▁presume	-13.3788
▁squint	-13.3788
▁10.5-11	-13.3788
▁12-13	-13.3788
▁CLOTHES	-13.3788
▁ETA	-13.3788
▁Ortho	-13.3788
▁Ranger	-13.3788
▁Sister	-13.3788
▁alumin	-13.3788
▁anatomical	-13.3788
▁barbie	-13.3788
▁carhardt	-13.3788
▁disadvantage	-13.3788
▁fyi	-13.3788
▁hunch	-13.3788
▁Mistake	-13.3788
▁WEATHER	-13.3788
▁gator	-13.3788
▁linebacker	-13.3788
▁oants	-13.3788
cradle	-13.3789
▁ARRI	-13.3789
▁Antique	-13.3789
▁Darn	-13.3789
▁Dislike	-13.3789
▁align	-13.3789
▁extent	-13.3789
▁gallon	-13.3789
▁straddle	-13.3789
lunky	-13.3789
▁greet	-13.3789
McNett	-13.3789
▁GRAND	-13.3789
▁7-7.5	-13.3789
▁SELL	-13.3789
▁acquired	-13.3789
▁angry	-13.3789
▁jogger	-13.3789
▁render	-13.3789
▁salesperson	-13.3789
▁genius	-13.3789
▁lipstick	-13.3789
▁divine	-13.3789
▁Armour	-13.3789
▁Through	-13.3789
▁displeased	-13.3789
▁downtown	-13.3789
▁Portland	-13.3789
▁lycra	-13.3789
▁netbook	-13.3789
▁universe	-13.3789
▁crash	-13.3789
▁Bank	-13.3789
▁destruct	-13.3789
?!?!?	-13.3789
▁Exceptional	-13.3789
▁YET	-13.3789
▁jeep	-13.3789
▁liberty	-13.3789
▁Friends	-13.3789
norak	-13.3789
▁BAB	-13.3789
IRD	-13.3789
▁DRYER	-13.3789
▁EVERYWHERE	-13.3789
▁slash	-13.3789
eyond	-13.3789
pulse	-13.3789
▁hardened	-13.3789
ICT	-13.3789
▁Lining	-13.3789
▁Neo	-13.3789
▁outcome	-13.3789
▁spoke	-13.3789
▁stunk	-13.3789
▁Wind	-13.3789
▁mismatch	-13.3789
▁stroll	-13.3789
▁ventilated	-13.3789
▁Yak	-13.3789
▁deception	-13.3789
▁fogged	-13.3789
▁Definate	-13.3789
▁century	-13.3789
▁juice	-13.3789
▁talent	-13.3789
▁Assets	-13.3789
▁rude	-13.3789
▁discussion	-13.3789
▁iffy	-13.3789
▁predictable	-13.3789
▁24/7	-13.3789
▁sprain	-13.3789
▁complexion	-13.3789
▁copies	-13.3789
▁Prince	-13.3789
▁Sincerely	-13.3789
▁lumber	-13.3789
▁1-1/2	-13.3789
▁BOY	-13.3789
▁occurred	-13.3789
▁reek	-13.3789
▁lrg	-13.3789
▁saltwater	-13.3789
▁10-11	-13.3789
ELD	-13.3789
▁1989	-13.3789
▁Maui	-13.3789
▁1990	-13.3789
▁NONE	-13.3789
▁variance	-13.3789
▁chicken	-13.3789
ANCE	-13.3789
▁rump	-13.3789
▁sturdiest	-13.3789
▁Roman	-13.3789
▁hahaha	-13.3789
▁envious	-13.3789
▁readjusting	-13.3789
▁godson	-13.379
▁LIFE	-13.379
▁utter	-13.379
▁1920	-13.379
▁pony	-13.379
▁Necklace	-13.379
▁logs	-13.379
▁notepad	-13.379
▁imaginable	-13.379
▁horseback	-13.379
▁sophisticated	-13.379
▁otter	-13.379
▁frat	-13.379
▁priest	-13.379
▁Lems	-13.379
▁notebook	-13.379
▁evil	-13.379
▁Sharpie	-13.379
▁Handle	-13.379
▁detector	-13.379
▁7,5	-13.379
▁Charl	-13.379
▁subway	-13.379
▁stepdad	-13.379
▁WASHED	-13.379
▁Upper	-13.379
▁mama	-13.379
▁LASTING	-13.379
SLR	-13.379
acrosse	-13.379
▁9.25	-13.3791
▁EXCELENTE	-13.3791
▁obsessi	-13.3791
▁Rite	-13.3791
▁unprofessional	-13.3791
▁Finger	-13.3791
▁Signature	-13.3791
▁prong	-13.3791
▁Golf	-13.3791
▁specialized	-13.3791
▁stopwatch	-13.3791
▁bellies	-13.3791
ECK	-13.3791
▁font	-13.3791
▁temple	-13.3791
▁Grab	-13.3791
▁OVERALL	-13.3791
▁42/34	-13.3791
▁logging	-13.3791
▁snack	-13.3791
▁taxes	-13.3791
▁produ	-13.3791
▁nerd	-13.3791
▁sears	-13.3791
▁unzipping	-13.3792
▁roman	-13.3792
▁gusto	-13.3792
▁Fianc	-13.3792
▁enlarg	-13.3792
▁HIP	-13.3792
▁OVERALLS	-13.3792
▁exclusive	-13.3792
▁Johnson	-13.3792
▁sown	-13.3792
neat	-13.3792
psc	-13.3792
▁Travelon	-13.3792
▁Moreover	-13.3792
▁HERE	-13.3792
▁swamp	-13.3792
▁gentleman	-13.3792
▁Yup	-13.3792
▁Suit	-13.3792
▁12-18	-13.3792
▁unknown	-13.3792
▁Rick	-13.3792
▁preschooler	-13.3792
▁mineral	-13.3792
▁Minus	-13.3792
▁disclos	-13.3792
▁evaluate	-13.3792
▁poofy	-13.3793
hehehe	-13.3793
▁WORKING	-13.3793
▁windproof	-13.3793
▁DRY	-13.3793
GIVE	-13.3793
▁Hence	-13.3793
▁stax	-13.3793
▁mower	-13.3793
▁gate	-13.3794
▁wayyyy	-13.3794
▁saturated	-13.3794
▁troublesome	-13.3794
▁Superfeet	-13.3794
▁HOLDS	-13.3794
▁SOLE	-13.3794
nagged	-13.3794
▁mason	-13.3794
QUE	-13.3794
▁respectable	-13.3794
▁Muck	-13.3794
▁Lite	-13.3794
▁{	-13.3794
▁Slacks	-13.3794
▁Cavatina	-13.3794
▁Cream	-13.3794
▁5200	-13.3794
▁filter	-13.3794
▁SAYS	-13.3795
nture	-13.3795
1/16	-13.3795
▁BAG	-13.3795
▁arc	-13.3795
▁Cub	-13.3795
▁Oct	-13.3795
▁alert	-13.3795
moleskin	-13.3796
▁handyman	-13.3796
▁Sew	-13.3796
▁30-32	-13.3796
oodle	-13.3796
▁optical	-13.3796
▁Learned	-13.3796
▁OG	-13.3796
▁38/34	-13.3796
Cold	-13.3796
▁flag	-13.3796
▁Smart	-13.3796
▁Meh	-13.3796
▁wasteband	-13.3797
▁pocketbook	-13.3797
▁APP	-13.3797
▁TRI	-13.3797
▁20-30	-13.3797
haven	-13.3797
▁aggravated	-13.3797
▁effortlessly	-13.3797
▁subsequently	-13.3797
▁27.5	-13.3797
▁5/6	-13.3797
NIce	-13.3797
▁Lil	-13.3797
▁layout	-13.3797
▁Worse	-13.3798
▁Office	-13.3798
▁unused	-13.3798
▁dismayed	-13.3798
▁Desert	-13.3798
▁Gunsmoke	-13.3798
▁carbon	-13.3798
▁CUT	-13.3798
▁=(	-13.3798
▁presentation	-13.3798
▁Lama	-13.3799
▁Hurt	-13.3799
▁vibram	-13.3799
▁downgrade	-13.3799
▁Sub	-13.3799
▁clay	-13.3799
▁stature	-13.3799
▁Ray	-13.38
▁raggedy	-13.38
▁SAS	-13.3801
▁discolored	-13.3801
▁Hang	-13.3801
▁BEAT	-13.3801
blown	-13.3801
▁latches	-13.3801
▁RN	-13.3802
▁relaxes	-13.3802
▁Midnight	-13.3802
▁Consistent	-13.3802
▁Maxx	-13.3802
▁plowing	-13.3802
▁discoloring	-13.3802
▁bruised	-13.3802
▁resized	-13.3804
▁reversed	-13.3804
▁flawlessly	-13.3805
▁defined	-13.3805
▁qualifie	-13.3805
▁lying	-13.3805
▁stretchiness	-13.3805
▁scary	-13.3806
""><	-13.3806
▁Garbage	-13.3806
▁Stretchy	-13.3806
▁Coat	-13.3806
▁Sandy	-13.3806
▁clutches	-13.3806
sheer	-13.3806
▁Lead	-13.3806
▁grayish	-13.3806
▁hack	-13.3807
▁polishes	-13.3807
▁61/2	-13.3807
▁satisfying	-13.3807
Ivory	-13.3807
lighter	-13.3808
▁Broom	-13.3808
▁velvety	-13.3808
▁rug	-13.3808
▁extensively	-13.3808
▁34-30	-13.3809
▁prayer	-13.3809
▁925	-13.3809
▁Darker	-13.3809
▁soiled	-13.3809
▁decorated	-13.3809
sembl	-13.381
▁245	-13.3812
▁Xl	-13.3813
▁3-6	-13.3814
▁NC	-13.3815
▁ipad	-13.3816
Girlfriend	-13.3816
----------------	-13.3816
salt	-13.3816
▁bearer	-13.3817
mint	-13.3817
▁overheating	-13.3817
▁sharpie	-13.3818
▁overhead	-13.3818
▁identifie	-13.3818
bright	-13.3819
▁swatch	-13.3819
▁adapted	-13.382
▁deg	-13.382
$20	-13.382
▁Tick	-13.3821
▁Open	-13.3821
esque	-13.3822
▁assembled	-13.3824
thora	-13.3824
▁EF	-13.3825
Magnet	-13.3825
6'2""	-13.3826
▁Legg	-13.3829
▁secur	-13.3829
▁Eh	-13.383
▁biased	-13.383
▁docking	-13.383
▁Functional	-13.383
▁plump	-13.3834
▁Bring	-13.3836
▁Martens	-13.3837
▁Riggs	-13.3837
▁components	-13.3837
▁wingtips	-13.3837
▁difficulties	-13.3837
▁curling	-13.3838
arrow	-13.3838
▁individually	-13.3841
▁apt	-13.3841
▁Chest	-13.3842
uspect	-13.3842
▁brake	-13.3842
▁Sort	-13.3842
sweatshirt	-13.3842
▁Lower	-13.3843
▁exit	-13.3844
▁Tuck	-13.3845
▁EL	-13.3845
[...]
